conv1_param_0 187.254501 246.400986 188.807983 313.806488 268.422119 221.379852 179.028046 378.001801 261.943359 144.619553 138.066406 196.403549 383.587097 412.879791 438.129913 149.659622 335.924011 246.991028 316.025055 277.961731 229.007278 230.699677 271.974579 189.786926 412.369110 214.805695 337.334839 194.977707 419.687744 424.134827 416.635895 178.615707 273.162964 397.671234 471.675140 235.929443 215.150284 143.520218 491.180725 498.595825 192.545746 260.652008 249.830063 199.958374 190.599686 216.320160 202.902893 192.505585 242.696457 174.255295 159.684631 280.744507 182.355057 193.334549 168.722305 232.562042 456.821350 217.472107 271.147217 249.754105 216.661530 185.834244 187.843735 264.389435 
fire2/squeeze1x1_param_0 206.209534 92.028107 140.271652 116.139870 230.838791 189.339020 101.786224 222.579880 176.362991 182.177551 230.788132 161.528488 169.125504 144.478516 222.328506 162.995392 
fire2/expand1x1_param_0 321.074493 379.626221 262.179230 233.912613 16767.191406 255.829712 276.158325 284.055969 302.697845 265.918549 234.783600 230.798157 271.722443 299.190277 238.394028 375.347046 367.771942 184.057831 291.710999 253.026215 198.447922 154.800491 183.900833 573.792664 363.176056 315.018280 245.411316 264.313141 139.587845 260.771240 185.249054 261.683624 228.021317 206.036469 458.285126 378.389221 250.844284 359.864929 248.505524 283.877563 195.848038 225.584061 394.121338 556.028137 244.159744 186.087860 171.482178 183.147476 325.615021 262.684509 225.012741 308.018066 235.103088 251.344421 340.202209 271.898102 483.673157 172.616989 441.824432 187.857452 233.607758 389.911621 323.729462 548.839844 
fire2/expand3x3_param_0 59.534744 118.184273 82.307205 129.491364 124.860596 101.995743 103.060577 52.723263 102.091103 134.306549 64.825005 74.822731 46.334133 136.972809 175.620361 78.325058 69.393257 57.514496 84.792351 110.301094 55.112366 79.331673 159.513657 123.096146 105.081078 140.184921 54.650101 91.709610 112.033600 61.369682 68.398018 58.435162 109.857742 89.392471 92.441269 73.452560 106.793907 53.253345 66.600655 129.711075 65.178780 111.353065 76.816132 57.311691 54.204071 46.197567 85.428413 49.979416 161.309982 106.212280 52.050236 87.601921 70.859886 130.293320 115.835075 57.148796 52.464451 89.504745 173.248917 87.154549 75.862061 56.583488 85.365250 41.668327 
fire3/squeeze1x1_param_0 306.737549 186.073502 255.417526 216.702866 184.221451 208.312759 190.715836 230.745193 205.727844 195.900589 295.457031 223.610550 195.560699 180.868408 164.533752 266.199768 
fire3/expand1x1_param_0 342.840485 261.991577 340.415680 247.473816 312.714142 293.742615 391.303467 184.428314 349.762512 304.665283 151.893829 233.621155 208.029999 323.839447 378.248627 322.720978 288.075012 176.148590 221.459763 171.932465 394.891571 221.244034 230.793564 332.148438 279.434113 402.852356 315.235504 258.959503 307.334778 329.146179 342.607422 346.792023 376.073914 291.165588 234.577972 182.325104 240.725525 328.251007 157.928986 407.930206 278.324402 447.247894 383.922699 278.680725 266.321503 255.302994 301.007812 237.335526 390.390625 310.460022 312.134888 257.437317 206.916595 297.098450 298.629517 378.940552 130.071930 428.805237 303.799194 327.543823 459.521423 265.576019 304.529755 260.533630 
fire3/expand3x3_param_0 82.431961 75.430756 125.765099 95.381470 101.014809 80.963272 108.371582 101.407005 101.995872 71.875923 81.610260 81.993721 71.950539 103.572556 82.805908 105.689835 114.153580 169.875900 83.090721 89.245590 99.169960 50.530758 92.077492 126.335403 96.451141 106.156143 84.435287 76.448204 71.148209 110.406586 85.313499 85.573601 87.027435 40.907398 86.545364 98.204185 93.923759 114.166046 110.495979 66.625648 96.521912 104.039703 92.281357 60.963905 70.204369 96.642952 63.959003 134.588959 79.500275 112.951889 85.417946 77.512314 98.408562 122.602989 84.335709 122.860863 171.960571 51.030602 110.784370 99.806572 76.165840 39.987514 85.374939 92.154968 
fire4/squeeze1x1_param_0 213.970383 285.758728 253.946182 116.568016 330.331604 287.327271 258.356842 253.841827 175.570816 265.456512 254.386795 416.098694 323.411072 309.112396 341.315002 181.438538 348.862946 349.787476 266.852020 215.558365 286.584534 223.871674 280.865356 291.929321 245.373077 257.799713 171.163254 241.513748 363.086304 152.702789 178.804459 206.589478 
fire4/expand1x1_param_0 628.917847 495.758179 496.947388 387.732605 679.660095 632.205811 569.358032 573.058960 423.839447 670.600891 513.462280 501.808777 468.648132 1042.660278 493.266693 241.882797 265.938019 352.563019 259.405792 445.957825 537.771057 364.351715 605.656616 661.545776 386.029358 389.130219 348.251709 365.853485 593.308411 619.658813 552.599182 406.960693 486.806091 504.085754 395.198975 312.077850 272.250458 362.098938 432.321716 470.832947 459.380798 412.664612 418.018524 803.278564 489.906708 252.587509 619.637756 553.620300 522.402039 443.011841 379.267792 274.596649 438.429016 527.600037 293.482941 612.048401 351.756378 426.729614 551.611450 555.307129 354.158905 495.193024 513.576721 451.110229 315.165222 754.617737 398.412933 521.244202 342.940674 289.805756 469.079559 386.471985 466.062073 539.507324 421.745850 393.720032 551.678040 430.491852 340.659698 475.864716 579.858521 593.774780 430.094513 403.177765 297.872009 659.896545 412.171997 287.734131 520.016663 379.070068 350.785645 238.646088 402.530884 544.468201 492.086212 241.731903 506.116028 201.742920 502.348206 828.985779 340.237457 424.224518 690.928406 609.977173 547.000488 363.238159 442.365295 299.368164 508.692078 415.153625 607.062134 291.259399 426.340912 361.805969 338.332703 525.741882 267.825317 561.116394 674.360046 739.163330 672.500610 582.135010 519.907288 347.804993 425.109680 402.509735 453.422577 300.438324 
fire4/expand3x3_param_0 92.539787 100.176247 142.788666 186.847366 96.737267 169.182495 116.209099 141.518677 195.906403 183.704651 240.099579 146.117401 80.681717 140.821075 101.174179 99.519455 133.657990 152.600754 140.526489 190.983582 149.574692 176.305145 79.341400 60.941849 130.103088 133.096130 160.736069 124.081642 114.210747 92.685661 106.226967 244.911148 228.360733 185.890564 147.493195 106.157394 139.424194 219.316605 158.327835 147.784180 168.128922 116.817757 79.672531 81.340157 163.368439 58.237961 136.262634 186.920547 177.318741 93.449898 154.572723 170.032898 149.730377 108.933426 121.290298 214.028107 128.240936 134.779953 175.845688 192.893387 55.692986 166.346909 150.618393 119.740791 161.354828 64.240356 94.368248 135.175690 94.057480 121.339798 86.332367 191.859116 67.038910 103.221649 200.581253 66.043365 85.014404 51.601418 186.853577 108.300095 165.343643 138.900955 175.935349 166.494339 135.906570 133.775436 139.792572 94.107407 153.108780 194.655975 75.052750 137.048401 138.933609 180.051605 161.074631 151.401917 147.718826 161.436493 144.346405 62.122959 130.188339 118.410896 110.820930 117.493477 101.882607 135.189819 111.277031 86.473534 66.031090 135.990219 220.528778 142.859085 124.423164 108.933525 129.867249 125.484138 65.436424 206.898972 131.344940 118.717453 224.875626 80.334457 146.213104 104.086227 112.957253 155.762161 174.031326 123.262947 
fire5/squeeze1x1_param_0 318.509125 390.725922 330.072998 284.389038 448.497437 270.481262 368.162750 429.417694 318.348297 287.817566 490.398560 297.112030 315.745331 380.172577 321.236267 407.845917 380.456848 266.069458 304.773773 420.150818 299.675598 359.983246 226.228119 276.738159 389.743683 258.085327 374.397949 432.085358 363.570435 385.108337 300.563141 315.591309 
fire5/expand1x1_param_0 669.402832 288.322021 427.181488 503.349213 308.910553 534.996704 468.808838 430.195435 226.503433 370714.437500 423.895782 362.578857 616.816101 617.652283 598.939697 328.769165 475.801178 521.098267 416.872528 494.806122 279.894867 452.086334 511.709686 364.313293 375.771515 396.004913 356.098511 331.146545 568.294678 375.413330 423.021423 518.131653 518.244202 418.912567 396.373291 611.890076 537.602356 451.513397 226.404419 382.711426 483.229431 673.768738 450.406616 391.701843 247.715088 342.157410 524.364441 570.185974 394.385895 655.138550 372.541199 462.608673 375.367889 476.011444 402.098846 509.868805 395.624817 448.994019 700.082520 385.280640 187.774841 439.770203 323.473419 489.345947 414.167328 422.610138 370.055420 673.020447 270.858124 470.171021 466.564697 557.224121 369.942688 362.941742 501.066162 306.831238 400.559662 490.674103 460.834534 476.171387 353.538666 386.947998 486.129791 275.206146 438.185791 597.549927 561.655334 390.719452 381.027039 511.507782 583.367310 376.129486 498.834259 355.783264 472.848816 495.100708 554.625854 788.243103 418.954132 525.480713 232.093079 297.993835 527.806030 348.140900 576.605103 418.057220 519.343506 458.973633 335.478027 817.173157 474.064148 210.256821 346.232086 468.192352 671.637390 415.764099 637.808838 421.531708 257.304840 558.167969 391.720886 489.059082 414.744720 453.419250 326.697876 282.644440 259.943665 544.612244 
fire5/expand3x3_param_0 96.096382 42.022106 174.149536 158.520004 130.847198 139.166794 140.989609 88.168037 108.098282 162.346329 61.650059 191.206741 183.407471 245.730316 85.542381 168.041641 83.607231 149.155212 142.976364 157.874985 176.705688 187.536392 130.251678 172.100250 148.613327 114.180054 148.140259 179.852448 141.866684 112.696373 116.036850 132.751801 182.187103 196.131821 202.900482 94.450157 177.416336 146.307388 118.066086 164.810104 137.226151 127.554939 64.809113 164.553619 139.584641 140.836884 172.321838 142.300278 191.804077 157.300797 119.150879 137.337982 165.712952 96.568550 100.510193 167.590012 104.457932 151.230103 256.792694 142.081665 175.880753 97.357811 40.157913 165.607086 160.503845 155.081497 150.467346 116.917206 93.745735 232.430786 174.360168 124.493233 99.344490 179.095551 176.650238 72.635544 163.913971 127.160637 150.551331 145.079712 229.105820 246.366714 155.166183 169.686447 89.837807 162.083847 146.897369 142.472855 111.690842 172.278793 59.859810 161.046677 189.281906 160.247192 123.967888 143.967529 181.133514 170.485275 188.421967 147.223984 134.099792 157.455231 179.811874 182.032043 120.523102 158.314209 126.464211 181.019745 191.459900 126.655327 170.368286 187.491837 173.561798 148.759232 178.233459 159.991791 100.666786 152.715714 123.888672 192.819260 151.164383 185.138504 176.710907 138.063385 154.246277 132.865646 55.748405 135.341400 
fire6/squeeze1x1_param_0 352.673462 365.338165 378.551880 325.636658 319.733063 412.494720 271.720520 395.295166 397.332642 506.441071 404.376312 273.943268 266.533661 330.040680 388.572693 349.977966 355.497192 308.765442 392.546753 179.423645 334.940094 318.604706 424.792542 366.502563 368.296997 255.437775 291.704315 382.761169 426.244385 510.964417 281.660980 224.079742 403.939972 320.291901 388.967010 222.795273 371.132904 409.247498 321.320557 389.049255 296.265472 253.621384 333.096039 395.641296 377.031311 367.448456 314.468781 322.629120 
fire6/expand1x1_param_0 495.854980 653.816284 601.934875 586.579956 696.596313 651.508545 588.134521 648.533142 592.109680 616.891357 615.513916 521.495544 594.156433 671.119812 785.482117 597.288086 494.180847 748.860107 576.035889 723.469177 541.278015 453.886230 633.778748 385.985016 554.426025 266.047638 544.790894 682.318665 618.344299 599.454163 583.845215 451.193146 446.797485 582.071960 443.223511 450.741272 460.968384 582.484314 854.389954 628.219482 647.604980 678.689514 522.163391 692.314514 408.481567 582.234619 275.347809 552.459167 593.503784 384.933929 621.695557 616.474182 778.456909 618.647217 480.350647 514.940491 584.754517 664.577332 668.326294 467.115784 577.866577 517.335693 563.437561 555.453308 566.043762 551.039856 359.398163 620.985413 509.360199 666.920105 335.565155 731.951294 681.265320 478.597382 542.657532 599.764099 489.412262 495.706573 847.074768 785.745605 435.541046 757.601990 315.130798 419.066864 558.755371 546.960693 541.777466 534.010559 543.040405 467.973541 634.569702 548.972961 435.206329 663.362244 461.856354 637.997925 905.972595 691.837402 577.341309 604.452759 627.674011 524.328308 521.882690 488.334320 577.768555 603.555969 583.284912 640.342712 779.188660 457.290192 568.775757 452.111328 829.531128 454.529572 595.227905 565.719910 686.374939 481.361176 585.291992 478.016449 799.286499 685.563171 677.067383 539.749084 494.418274 542.671814 573.539490 506.212921 610.289856 477.789368 880.264343 700.028076 723.022522 584.053162 869.676514 854.702942 406.307587 511.110901 659.970398 790.938049 753.082214 670.639038 764.027222 660.159363 463.972748 698.219727 676.194458 601.327698 624.817078 672.179077 578.380920 527.632141 678.625305 433.537292 388.708160 670.454407 577.347351 746.673279 496.174530 636.768494 743.906250 551.998413 622.206177 631.078796 506.229767 521.219177 521.159241 529.671753 565.698914 657.041077 490.171631 424.958527 408.997498 488.762299 570.675598 775.302246 567.265869 620.932495 509.125946 573.108887 504.377380 533.630005 713.505920 499.915222 504.964661 463.721497 547.966736 439.552521 714.491272 650.505737 699.532227 512.391174 
fire6/expand3x3_param_0 158.179153 86.199478 96.443649 155.036591 174.412674 158.257797 217.650757 152.379623 139.507507 155.107620 77.943657 220.269943 136.003906 151.065735 143.579758 189.104706 234.085724 178.446259 143.023712 174.200180 170.186554 147.975525 123.853302 125.418030 78.942764 138.781860 209.045944 243.225098 156.905121 143.436493 144.657669 184.948166 168.917908 50.143204 213.793991 203.233719 134.783600 226.994293 148.833099 118.271698 87.225304 192.254410 180.871048 183.293503 279.224518 167.265045 189.664886 131.191757 125.623840 207.061905 154.793884 79.860870 164.482483 191.478241 78.642868 124.421867 191.576874 176.485519 105.725693 180.025726 217.062408 227.386078 82.287346 119.077919 121.875443 235.817703 193.841644 180.536362 212.886917 222.806854 174.963943 187.169754 166.086426 139.596069 118.520615 248.860733 75.525063 228.893646 216.075485 167.631958 141.054260 156.889496 98.631233 194.882858 200.460129 181.352249 157.501648 168.273438 223.252441 161.433105 131.214172 220.646942 188.437225 115.938904 137.829056 225.138107 120.657730 63.424023 186.109680 107.777611 217.250916 185.071777 192.612579 161.721008 157.312271 181.867996 160.719269 218.212921 102.364693 213.133987 151.002731 191.656403 229.351883 151.937088 162.029526 190.012299 191.610977 179.422897 67.733902 147.366180 223.113998 154.712326 212.472977 166.799576 200.942459 128.539536 147.800751 205.097549 108.515617 119.027771 185.278976 131.006958 93.077995 137.937775 97.254013 163.778671 240.037201 177.985794 119.037460 161.234879 218.751923 70.154991 96.622009 170.840988 190.107224 236.084747 208.715118 204.208267 160.534821 60.411049 210.913239 158.131256 158.594818 111.981857 187.421158 162.783997 152.002075 279.362061 221.964508 159.403107 181.619705 168.109741 153.327225 170.022308 92.825012 171.214371 159.484772 108.280624 163.310562 114.587776 104.930779 92.767532 214.916946 182.385513 202.633865 196.023544 146.899612 148.891922 112.965912 129.581619 217.716095 148.830429 156.704193 176.182739 182.179413 184.150513 198.700394 202.626328 142.672028 145.403290 75.168915 148.094025 
fire7/squeeze1x1_param_0 422.383728 529.586121 321.318878 518.532471 430.842957 324.828400 208.861313 523.284058 317.492615 354.756866 321.025665 566.822998 269.577820 419.641693 464.565613 336.668579 364.507996 374.172363 303.802307 519.206665 431.789429 300.837708 572.505798 486.364258 331.462280 587.349548 389.197693 444.219086 274.374481 474.552887 341.168427 455.204102 564.750427 233.346695 481.976379 519.948853 277.668762 422.602386 599.536133 440.134247 332.751434 497.846100 394.499207 520.765503 292.975403 296.997650 419.899445 330.505219 
fire7/expand1x1_param_0 332.128967 503.500580 539.649719 473.361359 451.770752 561.804871 535.147705 332.559631 519.569031 566.690369 713.564148 735.482727 660.227600 408.619934 577.616455 340.935852 547.798218 588.163086 801.294983 601.461243 751.413757 497.078461 588.505615 654.822510 655.295593 491.006470 591.056213 586.675720 570.279480 448.491455 345.081726 632.627014 537.438538 559.117310 573.416321 503.447449 505.138062 537.144897 622.848389 576.426453 734.179626 633.143188 613.212646 620.703308 668.456055 633.795166 673.047119 780.023682 586.066345 650.932434 606.807617 653.931396 583.531067 663.370728 538.910767 494.410889 677.597412 584.410828 724.956604 469.635406 587.099670 514.394226 730.058716 368.688873 482.472900 721.702881 724.235474 591.280579 435.235657 604.918152 601.123169 634.170715 627.757812 483.719208 787.611023 574.305969 503.487122 599.575806 478.057800 417.920166 549.038818 619.780823 619.460754 595.397095 389.160461 600.318665 348.580200 344.475494 566.062805 658.934387 579.998169 615.504028 789.626709 703.827026 669.569702 483.182373 621.705627 565.285767 378.372009 717.657227 465.590485 636.035522 574.552246 564.813293 655.658386 782.447449 626.931763 325.084595 469.074188 483.087158 684.271545 604.845520 440.963715 727.393494 766.059998 595.622864 486.232025 596.270386 563.001038 697.717590 596.005371 650.622253 703.189758 560.617371 544.381165 650.167603 483.505554 725.176758 663.617249 498.537109 388.056641 503.125366 753.849731 647.308105 729.501038 897.967468 614.342590 487.225311 718.329956 469.755127 612.576111 722.241028 688.767456 626.917236 557.516541 417.966034 678.033813 708.840088 672.011169 483.479492 528.570618 591.665955 546.354614 716.632751 781.768250 747.896484 508.758759 579.679260 578.848572 622.149231 616.378113 415.920593 452.085632 510.498108 539.612061 678.450439 764.201904 606.698425 469.936615 680.231567 554.584290 549.084473 584.166626 546.357788 731.186096 683.947449 646.733093 889.948181 698.573792 489.239532 516.970520 377.136475 559.036194 775.277893 526.589905 512.339355 285.459320 519.987915 578.001953 611.114380 710.591553 487.033295 
fire7/expand3x3_param_0 180.804596 216.888397 216.176193 191.560150 202.862915 168.468170 143.260178 207.003799 212.765808 203.385483 177.497559 112.250740 201.601379 173.047440 191.110809 114.027931 214.027802 234.739975 139.411652 114.414360 115.482658 213.022003 131.135376 242.023087 214.816910 210.600784 211.670822 151.412140 180.385132 186.684372 223.716110 181.071854 111.419907 114.991722 191.685730 183.885834 165.292328 173.866867 117.822983 167.568634 190.012650 153.739609 121.257690 157.300995 201.838409 147.945236 144.715790 226.230698 165.947388 240.231201 191.288727 202.168823 139.000839 163.413254 124.746300 209.377426 155.467468 105.251884 147.082214 157.619583 109.293083 172.033173 124.461746 243.636276 194.097427 114.970345 206.198975 164.649323 187.391174 120.115280 68.943398 198.550446 72.619156 78.929100 178.932037 205.493652 179.101547 252.024506 215.323578 214.901779 227.997574 133.933578 182.346985 134.633331 132.100479 180.851639 126.537575 151.173050 147.323425 141.878448 185.712997 224.543320 203.694443 213.602020 195.846252 228.450760 175.844864 125.005333 167.056976 93.799911 235.089615 184.619873 183.118683 128.372955 156.034805 301.214874 113.986282 126.705154 177.066696 200.536728 135.041199 137.800552 148.168091 165.149261 150.731033 150.673615 158.647644 184.203705 157.505035 202.460800 154.062378 218.432190 170.624908 266.825653 162.642868 143.462585 269.395020 123.267647 193.080933 193.562164 204.191284 183.339600 175.599091 197.293839 151.372559 239.344971 118.359413 183.557983 277.826172 154.063644 83.206764 128.560776 207.585571 237.279556 189.591385 129.931763 150.183990 154.524323 164.542892 195.274445 184.108276 191.801773 146.399719 188.849289 175.915604 181.125092 165.645096 140.245316 181.670410 153.334183 170.297165 138.313812 155.089401 161.001099 209.445862 165.038452 184.731567 174.081253 246.571793 180.396286 259.917053 161.319855 208.462433 132.921371 138.594009 156.892105 147.725052 179.099823 240.828598 168.018463 212.754059 101.307114 156.763657 226.662674 124.028809 188.085114 146.816818 131.820587 192.230270 172.914001 172.851135 139.324005 
fire8/squeeze1x1_param_0 374.825134 431.874390 191.398743 347.452484 271.139587 310.819214 328.942017 525.338989 338.033905 393.911041 495.871124 424.711914 572.921387 330.620331 412.237671 275.720795 383.816193 443.731018 495.808289 339.551270 335.762726 381.174805 396.617676 494.910370 332.766327 512.496216 209.284546 534.206787 481.178467 348.300812 448.768311 451.876190 330.491638 579.208191 304.124725 302.263123 364.753265 324.776855 426.956726 360.831543 467.943939 352.606964 386.254578 223.813934 508.447205 308.328979 894.020386 482.627472 519.240967 282.587280 391.221375 487.125488 383.656860 315.831146 450.313568 363.881866 359.028168 425.465607 446.334167 358.146210 499.357117 572.589417 404.014221 433.572327 
fire8/expand1x1_param_0 1025.033813 1154.386230 927.321838 748.655090 456.481903 773.586670 789.590942 906.876221 1233.451416 562.878235 668.058594 867.823853 1243.295410 1117.654297 830.825256 968.701172 900.284363 607.915100 1429.703003 1009.910034 812.863708 537.494751 702.963318 14435.857422 654.375671 2006.845703 817.582031 1236.734497 3194.394775 914.884827 655.116211 1160.376953 771.088440 1352.217529 4623.199219 531.941345 1212.342163 1459.272339 1336.646118 567.807922 692.243713 1241.075562 1273.379395 2295.572998 845.522034 612.582764 817.470764 591.852600 420.730804 940.271179 697.068359 716.992920 1582.207397 1515.747070 2882.263672 834.603088 1322.970581 864.952942 1028.950684 806.015503 675.970947 956.301086 912.721313 1518.824219 1068.395874 949.406494 899.950684 968.206299 863.900146 1688.796875 1070.646484 1182.517456 671.637329 311.342346 2024.684570 1149.665771 895.429199 945.739624 1099.627075 759.452271 1101.050659 591.838013 782.868958 912.431213 3357.449707 729.327637 1165.649536 970.665405 1180.948486 906.664124 655.447083 732.422913 1134.104492 995.128967 1170.292847 1313.916260 425.203918 1278.958984 992.825928 945.040283 1225.514160 1287.057617 605.899109 656.153625 950.391357 693.446106 5814.265137 1086.701660 1012.298889 3990.864258 3661.654053 999.235107 871.073547 1002.237549 1077.453613 589.042480 763.359375 990.063904 444.961792 578.505127 1094.511597 1256.861450 8156.219727 1818.520386 625.796509 999.944824 1014.279053 456.890656 851.691223 644.309265 557.058044 689.769409 1416.763916 1510.243164 724.644104 709.254639 718.015198 12786.377930 974.886230 1363.795776 1185.173218 4838.224121 1510.437378 201.295227 869.928040 1041.319702 1313.117188 2081.561523 574.816833 782.682251 631.385864 1151.225708 770.809692 658.497009 751.117126 1080.162598 287.692780 651.452271 603.488464 1590.201538 813.484802 580.675964 2537.543213 925.234863 846.223694 1442.051514 968.034607 1135.052368 958.784546 759.768677 700.131042 382.271851 1181.123657 726.643799 1357.078003 630.192993 845.528503 590.630066 1022.805725 715.772156 795.493958 706.817017 1249.646606 791.810486 779.720154 896.774414 28052.148438 1109.702881 845.540222 671.266541 2308.270996 497.384399 711.407288 1066.973755 1108.247192 440.252838 444.314148 694.951111 978.908264 901.271912 471.546143 2220.310791 997.083069 848.348022 376.877655 1504.813965 1140.883911 2267.353027 604.200195 994.289734 651.107910 856.768005 1597.723999 518.780457 1318.221313 7146.449707 2540.781494 1312.918457 1131.877930 1014.178162 1469.455200 967.811401 1884.313599 1080.437988 503.698944 1338.723755 943.135864 1325.863770 906.460754 941.796021 1039.150269 986.840759 1833.026001 1073.120361 730.831116 553.158020 879.274902 1264.908203 746.152222 591.346863 641.413635 694.571167 1190.453125 826.732239 375.438568 550.364319 1036.324951 639.937988 575.120056 1064.924072 574.487610 1249.238037 1186.373901 1456.591797 1483.964355 535.453613 
fire8/expand3x3_param_0 251.130341 216.154846 196.643616 183.282822 212.646500 191.266205 164.164505 232.818604 200.401764 233.424805 134.484924 193.774933 150.098816 227.923355 256.292938 231.387772 210.275543 247.951904 268.150757 266.806519 227.196487 241.980881 257.428009 211.218155 185.697586 274.012451 126.795197 247.444199 231.351349 251.736557 234.616608 234.135117 182.533157 210.977325 197.432495 238.189041 200.539932 226.386490 220.622040 160.744919 255.696899 253.743866 301.329102 247.653427 195.205124 231.333069 179.650192 264.490479 251.419525 201.138336 204.511658 239.445190 252.930359 209.651093 190.357742 250.778015 272.300629 206.528320 232.605057 133.597153 244.476761 238.487274 195.803375 203.125443 167.141647 268.732880 200.242905 193.894562 137.513123 197.462830 238.137161 259.121063 132.100204 233.426773 200.850677 146.903229 212.927338 262.689209 276.332397 263.635773 108.400536 248.960510 234.453629 238.540451 135.463669 241.206345 217.268997 228.820465 184.020142 156.221497 222.898911 181.430832 194.918686 229.713730 212.965240 303.757477 218.252670 236.266556 228.267258 205.138626 190.306686 223.397049 268.455658 180.272339 251.113770 155.496338 223.680267 246.679123 184.515778 235.471558 206.933121 207.232712 280.104340 138.363647 245.243774 204.197388 263.148499 265.178345 202.444016 230.052002 200.674545 134.229111 182.501801 156.460754 230.715698 214.863373 210.892502 195.352005 207.148544 200.844315 168.608902 187.759781 172.458405 147.379471 250.832794 197.384674 195.270889 236.803757 242.741837 264.561493 216.386902 275.608612 255.264542 212.970993 152.619263 204.248611 218.798233 194.612976 250.488892 200.547729 213.153336 176.314407 131.765503 214.355087 309.418152 197.026321 157.160233 268.697754 94.850479 219.857132 191.577042 286.051514 129.990845 270.204163 254.517685 221.838379 119.823425 228.465485 262.767120 197.789902 216.660950 192.724014 177.749374 253.939636 179.991104 269.731476 190.598129 205.351212 237.916672 249.723663 239.227036 80.052452 227.306519 185.329422 270.536835 305.919952 278.003967 188.039459 228.220078 180.328934 195.257004 268.129059 254.351044 142.304474 229.842606 232.983322 240.764664 164.530731 230.689758 239.011566 219.055740 202.606949 248.172302 58.738937 202.431625 257.936401 255.831467 293.099426 239.535706 271.017212 150.097519 198.668869 132.509537 173.581970 252.047363 216.251526 271.134766 244.600769 222.542419 228.629501 228.171860 278.352448 214.485153 184.816452 244.591827 271.454712 265.454681 148.311890 285.275177 248.341675 236.108200 173.245193 147.269302 185.117462 208.858414 158.242661 204.208588 230.386642 250.922928 186.148148 131.570618 251.594177 274.524414 261.056244 152.260315 160.988968 178.879364 187.867783 266.267395 236.674347 245.331589 263.258972 185.727188 245.414093 298.264404 217.935776 
fire9/squeeze1x1_param_0 545.164551 413.449829 348.481995 526.781494 422.694061 412.095276 470.334412 485.480164 382.035645 431.137970 421.814850 460.325684 362.938965 378.314758 488.282410 384.163452 478.010498 434.650787 397.021271 381.045380 502.283264 470.502014 464.153015 526.197815 425.056000 460.054291 546.216553 495.001251 378.771393 398.371674 393.989746 486.367218 433.497742 396.001648 444.429840 462.350433 487.180908 426.674530 484.547577 343.444550 386.501923 378.833221 365.776215 431.010925 300.115295 402.050690 362.482025 386.176605 481.628296 470.254242 294.368683 473.828674 491.323914 491.954742 489.804779 475.347717 470.743744 304.678741 320.097076 326.782990 321.764832 405.438843 545.346375 463.291809 
fire9/expand1x1_param_0 284.501984 475.176788 541.697205 432.225281 475.418304 484.470032 480.095795 430.272583 367.262878 515.340881 510.713593 336.246887 468.622894 369.766724 486.437897 390.720001 394.173767 359.654602 454.120819 496.953552 244.223297 471.933838 328.000977 379.980591 458.456604 412.562531 490.501129 557.956360 433.303497 476.344482 550.290039 443.239288 353.418732 402.363220 484.319153 423.388245 368.756805 435.614105 319.119904 460.420715 429.528900 449.431549 398.803802 601.997620 459.989960 399.176544 596.729004 605.680603 455.349213 434.097015 371.281738 350.258331 535.129272 501.513794 446.849731 519.501465 494.480347 541.129028 327.660431 323.440704 422.622833 360.713562 476.934906 482.292542 493.424774 387.822510 413.866394 576.344238 558.915833 331.962585 316.232269 537.461243 441.140045 429.468719 412.564240 531.740051 560.277832 513.653625 470.069824 575.087280 462.864655 458.939301 376.145111 586.820557 540.419983 437.242920 401.151581 457.126892 391.638397 356.721191 521.204712 447.608795 529.894287 474.325439 492.436829 372.741821 390.568207 438.688568 430.880585 474.773987 365.477295 546.220764 474.792084 420.576233 315.194183 465.521667 563.008911 480.873230 484.515076 483.118713 331.329132 524.255493 489.089661 376.798340 446.244293 442.768799 464.562195 420.293274 344.990723 553.248657 437.290039 547.517639 410.261688 485.957825 595.401672 456.369263 472.702423 473.235657 359.868317 486.723022 436.990448 318.862457 548.556335 412.294128 492.557220 622.002625 444.018768 429.328278 413.559845 557.183716 575.577393 381.677887 351.267883 456.235535 487.243622 509.513458 536.767090 384.214630 526.342346 442.755890 478.407990 475.918335 408.527374 450.391571 426.310608 319.068848 496.065155 484.784668 278.281769 671.363037 366.376801 514.926514 415.934174 376.560303 546.536621 454.273102 426.077637 424.941559 409.498505 352.107483 337.184937 490.344818 287.700317 475.018341 401.626892 475.910645 392.193573 687.001953 477.527557 536.800903 339.154999 401.111145 562.196411 576.997131 379.138336 565.148865 505.246765 452.990295 366.335785 520.347961 339.179596 412.367432 367.632050 425.530426 275.575134 447.284332 372.201477 578.746887 438.368622 513.004150 317.974609 553.449280 425.190399 562.274658 384.938660 369.754089 450.592896 310.475800 413.861481 625.295959 447.546295 393.644043 659.600952 513.336487 465.063629 537.864746 549.407104 532.184631 408.882721 369.013580 550.073059 385.806763 523.223999 494.980103 506.305389 511.063416 574.296326 570.912537 521.564880 478.361542 616.690613 424.903809 559.005005 470.898438 495.748535 576.234863 596.935669 554.401733 522.760803 322.953400 520.901367 462.544464 451.192017 340.249817 432.658630 471.145752 345.941772 477.128052 534.352356 532.024719 488.659515 493.045258 402.676392 531.329529 492.264008 472.636902 
fire9/expand3x3_param_0 232.249878 270.633392 188.827744 186.377762 207.609070 161.502029 242.706100 178.290909 192.944534 284.951874 217.588135 222.479462 230.908127 183.700455 272.617096 204.185654 197.663864 246.560898 222.860016 154.845245 168.215668 264.821899 305.683563 70.709099 245.076675 192.224686 209.793045 222.064774 205.350220 215.648911 197.249542 217.469681 293.525726 218.090942 157.353867 255.380081 234.928253 130.951614 149.950638 242.009155 224.367523 239.978638 184.171768 301.899445 192.214935 227.374023 128.139420 244.777527 239.254791 244.742172 134.045532 229.082001 193.973511 255.211349 157.990906 228.829773 202.855637 235.196014 197.810547 244.631866 190.413391 195.864349 193.947159 200.343201 176.542725 201.148895 249.760239 244.262024 252.329666 247.759842 232.381073 210.954620 227.921814 241.417084 209.757004 234.135147 232.530182 267.919403 279.764069 181.519073 147.274780 218.996643 234.161499 210.261703 198.694092 170.474640 270.063751 241.990372 229.913162 220.476196 253.095215 228.517471 161.466019 179.116516 216.891129 229.650284 190.592758 223.237305 154.782883 199.904587 168.828064 163.084900 210.090866 210.741180 230.999527 270.782043 230.018616 105.218597 209.043396 216.008270 194.988571 221.471115 258.381561 242.968246 207.671356 245.562057 235.845749 249.478210 227.476730 240.406586 204.639038 238.870361 233.710159 172.989059 233.844406 210.786835 154.189774 224.639450 181.838638 220.992035 240.126572 170.607910 206.713821 194.295944 208.521042 223.574905 187.344177 193.602402 234.897064 239.779205 185.747223 189.444656 242.300491 212.350372 171.541290 193.914154 193.030838 188.429306 273.159729 228.559448 209.455750 222.756348 249.624481 147.147156 293.517700 201.381317 258.203064 206.720169 248.266556 228.221252 218.859909 235.727280 203.840042 255.356079 219.775253 227.337402 238.928299 239.823303 227.862625 269.430939 129.819351 191.760956 182.303513 215.666779 246.355804 250.525284 237.908463 254.089920 208.027451 228.210693 201.649078 204.450027 231.968048 245.917099 203.869507 226.666519 186.128448 241.886383 204.454391 239.964218 231.970764 237.916855 262.959045 198.603317 268.485382 159.254166 183.195129 209.520782 182.003906 193.345886 148.899887 272.466125 198.099960 136.693268 223.471680 167.213303 172.937973 207.724182 179.343750 228.915756 271.611237 234.664276 221.168701 171.077484 239.291702 148.076614 222.363373 233.643204 271.212311 309.491486 220.205322 183.940750 209.977203 200.872833 255.144028 270.983429 199.719437 230.798843 184.040268 298.565826 294.921600 241.141418 150.375443 187.948273 198.946579 222.537827 242.816956 92.411720 190.130646 209.463272 133.045898 283.560608 269.382294 237.906326 278.164825 165.299438 191.774170 245.917130 214.560394 214.921432 175.015121 202.849503 211.566345 226.743271 244.726624 267.990204 
conv10_param_0 915.116089 946.748779 892.780640 871.623474 926.732178 791.085083 839.338684 952.321167 954.842041 773.636841 830.340881 769.523438 797.995056 780.911743 736.986633 860.081543 873.474915 914.784668 796.830750 842.385559 969.906616 1038.894775 655.067017 921.439758 826.609863 773.230347 884.197754 911.165466 865.405701 706.398376 898.370667 915.849976 1015.605530 913.773621 989.329529 888.999146 861.541321 801.108887 937.821228 1002.341858 932.380371 1062.953369 913.248962 872.516846 1075.478149 727.054749 987.717529 901.765015 829.447632 919.163086 987.508667 635.048889 960.713257 911.804260 987.526062 932.414062 828.942078 885.821655 977.426514 1076.425293 824.059814 900.024292 862.335266 882.801025 965.331238 732.682190 690.242920 1006.662170 858.500000 871.362366 705.590088 906.603821 808.911743 877.778503 776.895996 862.236145 828.070129 791.521484 851.493652 883.584961 978.034180 859.710815 979.415527 792.247986 778.806335 911.777527 999.626160 842.216797 868.055847 854.459290 900.635803 827.013428 947.875427 894.911316 808.085571 803.381287 755.857300 761.959595 763.741516 909.029541 800.526428 866.330261 850.098267 830.505859 1019.231873 880.550415 1021.600098 832.205750 827.294128 670.080872 702.350098 998.545044 951.584290 942.947876 972.711914 728.209839 711.634155 787.532227 763.737976 915.563171 671.301636 779.031250 963.564209 953.106384 978.213135 851.977417 786.674316 689.308960 853.520325 823.869751 951.451172 986.869446 969.297180 983.148682 821.010864 766.856812 976.687927 874.651794 863.855896 874.205933 794.615295 893.996704 935.481689 847.423462 989.926025 747.408508 774.216125 849.923523 688.364807 1093.268555 844.119019 1173.888672 945.152100 846.792297 999.663330 837.022888 971.553406 982.135498 758.757568 842.218323 879.329590 924.140808 1075.192017 907.326904 914.088257 839.039856 949.073364 881.334778 958.601685 890.450500 1017.282959 937.374939 865.542786 931.403503 910.996399 856.051880 854.855591 982.505188 800.802979 915.781067 971.063904 874.998840 919.910522 945.529480 1027.526489 897.317383 884.234680 1006.287048 985.353333 939.942017 842.911438 856.344299 954.433044 911.138489 852.166077 961.652466 883.063232 877.876892 903.840698 1130.519531 914.664795 888.148987 965.668152 832.953064 969.449341 882.856262 919.676941 1064.353027 895.692322 820.187500 818.403931 1033.144653 938.404358 928.583252 931.316589 1033.692261 842.915527 924.936218 828.245972 934.156860 1009.598389 873.341980 969.557434 1013.972229 882.041626 1058.377563 863.369019 950.272705 923.524353 829.870239 911.329529 853.691406 939.479492 971.906494 999.295654 1028.797363 888.037720 978.841064 878.773804 807.181641 960.463745 906.080261 867.685791 876.421143 865.378723 892.108887 861.286621 957.093628 1096.616577 987.054504 999.982605 867.849976 880.358826 1031.212524 759.842163 941.735718 956.804993 921.414856 906.427307 911.666260 945.572266 897.069092 1007.263184 1058.958130 1030.382935 1082.265747 923.098755 1022.354980 765.879089 935.354370 870.967102 926.934753 1012.170105 1008.776978 844.155579 918.860474 939.413269 999.715637 802.330017 832.645386 911.718201 1205.839844 1169.188599 1064.448364 772.614624 981.312256 837.668762 1064.205200 790.175171 737.278320 925.201477 905.590210 929.222168 777.022644 868.450134 838.652222 825.307983 723.744690 971.184692 1019.415283 849.202759 941.652039 928.345825 1067.344360 943.260925 962.390198 1042.032471 933.746826 1031.322754 950.487305 1039.011963 995.484375 970.007507 932.957764 940.825439 950.875549 938.342651 808.841309 742.947144 781.249512 976.911011 713.439270 780.660461 844.188843 808.280518 782.678650 855.255249 743.638428 955.305725 937.990601 848.210327 870.225220 884.927063 877.306213 777.759521 916.018372 987.632446 988.510254 904.554016 814.890747 938.549133 954.833191 1002.415222 719.691467 900.498108 723.831787 563.838806 811.648010 736.109619 741.932068 736.928650 525.757507 648.559631 705.046570 863.407410 774.056824 938.523621 844.345825 859.559631 867.240295 793.042114 834.944519 749.080688 882.708862 860.302673 867.281982 888.713440 864.709839 950.559387 998.016174 957.760010 1114.757324 856.058716 1034.355957 986.126587 844.686218 752.838135 880.423096 963.175598 988.139954 1063.151855 958.173157 842.467407 799.971497 889.705994 785.774963 831.513123 901.128113 851.020020 885.869995 844.061218 826.713318 749.669922 734.914001 719.663391 891.651184 844.445251 752.852966 897.753235 874.888000 821.452576 822.386902 714.012756 878.174866 768.153442 829.183899 993.017700 867.258362 661.674072 860.100525 827.230957 1004.513489 1133.698242 829.456116 1082.687988 1097.466187 644.884766 698.915405 961.143066 898.423889 869.489685 999.475403 760.755493 824.510193 807.439270 910.337036 1030.786865 718.200500 986.129211 625.988098 673.694092 920.493835 874.630615 811.822693 795.072998 794.903748 1113.172729 868.934937 775.634460 618.163269 1059.193237 997.395874 1113.317627 834.508972 758.189392 797.862305 1091.571289 968.298584 896.853516 1004.235352 711.082825 793.498474 1114.462036 813.514526 808.862915 830.652466 653.655334 761.110840 668.303528 671.685669 871.365051 939.848877 892.023865 966.267639 939.785339 755.819397 790.605713 1009.447754 1018.915222 905.431519 1001.631897 702.583557 858.883362 961.942017 908.346252 798.996155 719.084045 1007.189270 787.273193 1080.972900 822.753479 945.557556 1173.083984 911.779663 885.466125 1128.999146 724.646484 978.977539 846.715088 973.382141 653.228821 896.151978 976.702087 928.918152 822.911865 1015.793030 728.115540 961.878540 874.807495 964.065491 749.939514 1025.501221 1203.564087 1067.868286 874.522278 945.495667 665.307861 1021.191345 718.616333 1067.670654 810.936401 994.562744 993.137146 957.825684 897.728271 732.361511 935.564453 775.575500 806.120789 791.228821 930.101562 941.975098 894.466431 904.535522 994.329712 726.520752 786.273193 723.476990 980.309387 754.869568 946.903625 948.215637 872.570618 1012.379211 844.686707 953.276489 951.396179 864.523071 841.049866 747.741394 900.630554 884.937866 772.912720 930.827454 678.919373 918.066528 786.300110 812.113037 903.290649 859.575928 1008.390869 919.552551 833.255859 1083.954224 679.023071 901.548523 748.732971 896.572144 863.793335 938.159973 833.644958 820.504150 791.481140 803.066528 792.547302 686.338684 881.697571 857.253723 800.907227 949.248169 807.328674 846.888916 1274.300659 778.585999 884.194763 734.272095 685.511902 1095.706665 887.177856 822.232971 751.576050 900.381226 939.428345 701.590149 618.932373 787.907410 793.207397 1159.400269 925.876526 1077.741943 1022.258057 690.355652 834.500183 792.544800 719.131836 789.556946 641.864807 1137.434937 833.107361 954.532349 808.666443 1036.781616 796.438293 811.919922 731.458618 983.710876 734.284851 746.811584 955.584839 821.209656 872.541748 727.817566 806.191467 853.052795 907.132446 965.885254 961.598206 745.589844 976.986938 816.037537 934.426086 850.367126 787.643372 1087.743164 797.102539 948.616455 1042.615479 805.127686 871.561523 809.307739 783.456543 931.927551 1021.063660 973.898010 901.578735 969.464111 976.480408 822.380066 800.895264 773.548401 888.826599 932.552368 780.119507 928.998108 868.231567 660.826599 975.630005 967.428284 958.212158 851.418823 1127.583740 640.747314 823.374084 799.429443 898.461792 801.879395 917.341431 734.840759 1014.852051 932.185120 980.731628 786.713745 781.158813 1112.882202 737.802002 899.390137 878.942200 765.695984 1084.110718 697.834595 819.469116 786.172485 798.264343 690.145508 1064.759155 876.920532 892.449280 977.111633 652.172363 901.010559 998.174011 716.647095 771.922974 794.972473 742.265747 877.741394 758.270264 1008.847168 684.856689 885.373047 944.171509 1071.682129 1307.931519 1031.236694 661.509583 825.043579 983.428345 993.942749 1014.500488 908.768250 739.817200 852.490417 792.915283 870.806458 726.120178 901.441711 946.653931 930.716675 893.537170 866.681274 863.716431 1007.539368 803.945862 917.084229 902.063782 819.129822 995.030457 900.856323 914.377808 898.340881 1011.106018 873.878906 985.548340 822.287048 801.374817 931.706116 790.361694 935.997925 906.559448 819.895264 824.001221 1077.217407 1038.299805 882.885315 895.070740 1012.177917 546.411194 1047.873779 777.455139 767.487122 857.292847 1081.629028 963.476624 890.576660 785.835999 970.893982 823.075195 891.865906 967.591431 730.810181 796.176147 897.219055 892.836060 996.690491 1141.528931 785.816528 592.764404 888.701904 736.542114 953.108276 804.656738 844.921021 996.332642 834.487976 1037.106934 885.210571 806.738037 1160.161987 813.497925 773.776184 971.856140 990.360046 917.521362 1059.309326 953.120239 904.074646 998.833862 906.442322 910.816833 678.492798 904.239929 908.709412 711.880005 798.506348 929.601501 702.694641 701.846191 1001.273682 864.414307 757.241516 750.358398 1076.118896 591.041626 769.345398 1074.243042 832.108521 827.966492 922.696167 704.225891 883.082336 740.215515 919.665771 773.968994 797.415649 905.720337 960.644653 944.700989 722.035767 757.272888 984.384399 784.694336 1052.319946 712.243347 1085.229980 852.658020 925.690796 858.767395 843.428528 992.827393 1176.467773 861.020996 1028.366333 828.412842 908.135925 943.786011 912.037903 750.588562 649.226135 1103.857178 936.280518 953.920959 858.981750 617.400940 878.313599 829.366333 1010.007690 781.485718 825.836731 963.317200 838.322571 855.581787 1036.333496 763.647278 931.052490 951.273010 882.649719 990.824402 828.409302 1191.870605 861.893555 841.913147 993.026978 747.097595 740.370117 821.176941 1087.247192 614.341431 1093.446655 750.185913 927.310303 1006.821045 1019.590942 959.430298 916.010010 879.778748 798.520447 947.363770 869.818176 1005.046387 847.257935 1083.581421 949.189636 793.936035 865.003052 914.690430 899.364685 748.792603 896.881653 875.543152 814.468262 825.646301 865.830933 1023.947510 924.061462 901.029358 845.039734 999.417969 830.593445 840.782532 691.984131 790.380249 903.394470 829.369324 1070.227051 984.599548 1084.333618 983.276550 727.140198 1142.217041 1157.751831 884.264099 908.917480 1093.526123 919.861572 986.266846 974.331726 859.692078 997.667480 721.574951 900.741089 1034.381226 920.326050 828.171936 849.509277 888.350891 847.280884 1003.110962 941.671265 661.766052 841.052490 642.139587 885.235840 844.409607 1041.291992 499.107056 1046.740356 927.213196 914.830139 1082.810303 881.312927 1017.996765 772.920898 827.740173 711.298157 856.006104 827.015808 677.388916 703.699402 796.744141 775.444824 873.894165 864.757812 709.333191 797.541199 823.375671 759.488831 780.632935 903.454407 808.359009 912.379089 913.365662 907.512207 950.385864 875.686890 770.578918 748.111084 701.348083 824.588623 859.144836 787.987061 793.892883 918.314148 963.525635 805.072388 880.369141 814.298157 907.436829 836.981567 879.483154 755.466431 739.678589 999.979553 940.959961 877.604614 674.131348 1088.734863 985.165527 1056.167358 817.294739 861.109375 655.914795 692.933655 769.508789 873.277588 531.577271 965.028625 831.248840 733.202087 993.558655 912.788757 824.241333 792.467468 921.348694 975.467957 765.117432 756.869141 935.805664 946.104858 804.302185 826.172058 
conv1 0.847474 
fire2/squeeze1x1 0.197873 
fire2/expand1x1 0.105459 
fire2/expand3x3 0.105459 
fire3/squeeze1x1 0.174805 
fire3/expand1x1 0.097194 
fire3/expand3x3 0.097194 
fire4/squeeze1x1 0.124862 
fire4/expand1x1 0.069202 
fire4/expand3x3 0.069202 
fire5/squeeze1x1 0.096991 
fire5/expand1x1 0.085685 
fire5/expand3x3 0.085685 
fire6/squeeze1x1 0.122845 
fire6/expand1x1 0.072292 
fire6/expand3x3 0.072292 
fire7/squeeze1x1 0.118649 
fire7/expand1x1 0.100086 
fire7/expand3x3 0.100086 
fire8/squeeze1x1 0.177017 
fire8/expand1x1 0.139025 
fire8/expand3x3 0.139025 
fire9/squeeze1x1 0.293613 
fire9/expand1x1 0.147712 
fire9/expand3x3 0.147712 
conv10 0.272469 
