Conv_0_param_0 604.465698 51.243683 293.022095 853.823792 95.801231 871.705200 250.589737 398.490540 840.911316 163.105743 49.962673 92.655769 293.513977 8071.090820 363.517273 138.005066 668.121765 552.624207 414.792938 389.302338 257.239410 146485.859375 626.788879 335.483154 879.459534 171.659729 341.781738 180.846466 572.186646 278.469086 195.776917 175.519241 105.283470 29192.302734 864.452393 178.355042 259.570984 130.331131 371.639709 156.834625 642.854492 294.615814 299.559845 173.608917 97.783150 186.571289 177.841446 133.440399 744.047913 384.783783 372.964203 381.291687 263.925201 86.082878 84.326996 11761.086914 611.187561 615.479797 14229.245117 528.042297 510.804504 1008.943787 24593.189453 20383.378906 
Conv_2_param_0 427.749146 389.439850 320.406769 280.138000 663.477234 150.975220 301.203827 461.323975 428.240356 276.113190 348.702209 289.779022 380.970001 84.141693 309.244354 173.812149 168.298599 440.768829 345.483734 260.611847 293.702606 154.838028 600.501953 249.694397 178.452682 419.165039 516.418701 131.081635 176.047058 364.525299 509.568481 89.634117 240.794067 298.146637 245.884247 524.403992 162.784180 431.953125 436.637939 398.567169 361.503387 206.551392 730.826294 155.594421 509.248566 541.256775 529.388672 251.867096 224.415070 198.732895 452.871948 233.274796 172.414963 381.607544 340.398560 394.848938 278.301117 260.574677 241.707169 377.780609 214.782822 510.852478 273.117096 219.270691 
Conv_4_param_0 303.950836 68.895920 563.809448 353.831360 213.582352 318.784515 693.973328 3014.895020 205.478561 138.932892 207.709381 142.166077 782.936340 95536.585938 454.565674 883.472656 113.088692 256.162537 2459.911377 419.652191 290.376801 305.142700 342.801910 518.299866 187.583710 119.834007 1028.301025 191.034729 329.845459 465.269073 1311.989380 101.485092 289.163483 601.995300 686.896973 201.445297 228.029556 298.765900 356.510651 284.929352 279.016327 341.836609 342.437988 322.697021 100.105186 179.708252 277.493256 109.814873 212.658310 265.186371 540.698303 386.114349 338.575531 73.591721 91.784691 255.364471 266.230438 498.733856 528.166077 393.902191 536.482361 378.144775 140.495438 216.977768 
Conv_7_param_0 329.665466 637.015930 389.149841 478.827179 404.936554 546.899597 524.398254 536.599121 646.644165 1084.539673 528.486328 688.979187 443.853668 666.153198 536.445862 438.225983 319.823151 306.410675 309.148987 738.267822 251.445618 428.279846 650.334229 408.847687 229.594086 461.126984 628.376587 279.952240 319.924042 273.961060 445.461182 685.881470 531.799377 470.990845 1020.873596 336.828339 410.937073 716.343262 613.882629 552.095581 465.861420 266.853210 495.082825 922.092712 301.484497 305.876953 409.298615 445.381165 348.298431 481.673859 439.649323 515.399231 248.732132 817.758850 793.609131 500.497284 479.554993 603.794189 241.934464 533.866699 446.627380 330.463013 389.254974 271.013092 
Conv_9_param_0 128.613983 81.186157 7335.888184 337.124725 840.229309 429.167358 1786.528320 3309.918457 1206.784546 181.920654 111.087677 92.747986 2752.159180 121.649300 2255.524658 377.929626 90.139565 313.821747 2460.022949 410.904816 320.950043 111.569054 222.357269 379.189606 161.875458 125.786407 4871.804688 11922.463867 245.662766 202.257416 6328.552246 94.369713 3648.711670 98.281670 99.062477 246.625473 230.906067 25611.552734 369.507721 19185.873047 170.649857 1068.452637 352.075928 229.314224 62.405430 254.805069 10886.697266 84.492027 174.270523 108.855507 119.954544 222.000183 4247.261719 108.816940 5371.449707 270.892822 203.464066 138.728653 119.657120 597.193115 119.414505 96.132591 185.879333 214.697205 
Conv_12_param_0 1413.082153 2198.394775 2278.413818 2710.812256 2255.503906 2716.071045 1793.037231 1798.400757 2345.442383 2720.878662 3045.797119 1451.457642 1681.519165 2262.723389 1516.344604 2456.360840 2599.916504 1906.027588 1813.242920 1935.391357 2577.077393 1340.981689 1221.822998 908.284973 1985.866211 2822.566895 1559.213135 2662.879395 2015.147217 2424.887451 1947.066528 1852.612427 1456.832764 1928.366943 1796.882080 1405.111450 1690.665894 3211.598145 1615.476440 3045.912109 1763.619385 1619.208984 2451.164795 2911.513672 2330.327148 2485.950195 2120.089355 2051.770996 1233.470337 1692.999756 1674.919067 2416.892822 2334.874268 1213.587646 2491.727539 1411.702148 2972.149170 1722.647583 1992.297607 2140.323242 1845.013916 2102.529053 1970.803345 2351.643555 2596.958740 1595.071167 2327.787598 2895.222900 1428.403564 1860.374023 2634.623291 2477.305420 1633.695435 2624.524414 2632.116211 1959.957764 1682.777710 2328.386230 2701.314697 1376.233398 2185.632080 2164.672607 2199.701904 2394.523438 2575.531250 1839.993164 2535.975830 1956.983276 1338.885864 2805.785645 1952.050415 2232.608154 2105.252686 1584.804199 2135.425537 2311.653320 1985.585205 1984.103149 1935.343872 2276.505859 2751.642090 3514.175781 2137.153809 1784.507690 2108.103027 2342.051514 1893.638916 2195.488037 2022.112183 1312.941772 1513.916870 1656.764160 2184.806885 1250.958374 3001.444336 1452.995361 1964.743408 2247.222168 2179.763184 2168.595703 2258.372314 2781.256836 1904.230347 3166.150146 3072.657959 1958.213501 2369.386475 2104.208252 
Conv_15_param_0 619.052795 410.173370 767.552490 508.465424 479.567780 554.124939 1247.257690 613.608765 473.779938 884.292908 851.989197 1018.584473 691.278381 1554.817505 667.864075 1121.371826 365.664398 357.898224 405.426544 673.596436 972.316040 468.205872 897.335876 378.795227 485.973907 646.003296 1056.830322 825.463806 606.533325 1137.291748 947.112183 333.486786 297.012695 539.638245 966.973694 1458.119995 331.981750 1191.096436 450.794952 479.786987 957.363281 331.038574 645.021851 446.278412 622.841125 976.075439 203.583435 337.544067 506.927155 914.456360 633.722595 420.426147 742.876343 1572.747070 340.356293 914.252625 525.723511 590.199768 1006.752747 588.130066 225.194534 679.834839 200.991974 529.592651 833.599487 1079.605713 584.579529 1075.968872 832.442444 597.181824 489.768402 1327.024780 324.070831 505.275818 777.393433 1366.181030 594.015808 1312.388672 836.280396 597.779297 720.730835 770.389282 1011.688782 1243.863892 1456.391602 922.970764 317.983826 617.770081 945.903564 734.032410 700.349487 815.788391 876.251465 1097.057373 1173.055054 359.285156 829.221130 502.035828 678.222717 491.412048 1044.151001 841.759277 567.890442 333.282135 525.363953 318.920837 327.843567 993.712769 732.182007 2623.024170 1048.486938 430.206146 1100.005005 454.712311 1484.046265 911.084900 966.912292 1287.258545 471.895660 605.390625 389.324646 477.409180 561.693359 854.149231 1520.518799 986.881897 686.979370 1262.577393 
Conv_14_param_0 200.944107 375.396729 196.097488 241.717560 723.162598 170.735611 253.945908 286.594543 245.145157 237.313065 227.344574 154.108444 265.360107 236.003922 157.630539 169.699249 293.728210 241.884109 171.702545 164.149139 314.660187 398.821594 294.232849 1496.871704 684.960510 244.009384 316.836639 270.065704 207.291870 156.594055 229.401352 3553.720215 340.243317 196.205078 840.182861 209.103851 402.144165 169.075668 398.733368 904.272461 219.011429 312.823608 260.018433 193.001663 261.049164 250.179779 610.757935 215.475983 431.207733 138.875671 203.854523 347.011627 216.117401 156.821091 196.213730 203.245193 238.975616 247.798828 202.753616 487.137634 426.710175 164.616455 415.582611 353.032928 177.444778 206.982666 331.935333 247.920303 198.344879 338.814423 251.607941 209.773788 604.359192 262.302612 208.820450 260.373810 225.947159 178.649902 271.918976 213.629822 196.727264 174.040970 223.725082 203.868301 218.109253 243.581879 291.758270 345.065033 182.178970 484.349121 204.644196 221.877106 230.634537 212.972900 252.003616 298.253204 182.325409 368.741486 334.682831 259.713867 145.604950 131.476532 284.238098 209.098969 320.357086 422.644073 282.851349 181.917038 276.847565 202.061905 252.371124 367.838348 223.902710 308.045166 220.103546 226.934036 185.740311 229.115128 326.708862 315.876038 306.065338 252.639664 316.359375 145.405624 287.496460 248.467636 373.267059 161.997116 
Conv_18_param_0 481.040039 703.319946 555.416260 434.144714 593.383972 430.988342 404.765411 296.266907 609.393555 291.797638 550.916687 389.708008 504.970581 372.802521 568.725891 424.180695 376.282623 502.131378 473.948608 295.170288 484.576508 495.095612 717.853088 471.144379 470.291809 176.418961 389.865082 394.933533 513.431213 521.430969 321.501312 775.329834 459.676666 519.935547 353.200409 310.859894 448.981964 593.125122 380.234589 408.663269 660.007141 858.352600 631.457520 308.196655 468.802490 530.056580 831.203735 199.102921 593.171631 656.061829 624.297119 394.551270 743.380371 408.856506 435.722900 562.979309 455.657776 534.593628 427.134003 594.088806 622.692810 489.702026 638.932129 626.291504 514.670410 395.911469 536.753784 275.184082 261.538147 514.093384 670.564880 564.831238 487.383179 414.094849 703.158691 483.986877 571.939270 787.076660 398.402863 455.886505 479.234467 539.775452 389.855316 212.220245 258.798096 392.027588 439.057465 572.128540 412.363892 650.785522 576.372559 560.076355 617.878784 706.455505 644.296143 584.517029 523.179077 477.540649 389.073517 400.420807 340.683594 404.806885 777.188232 785.143188 523.906067 489.724518 522.161621 424.062744 492.809265 408.371552 621.446045 423.312378 496.333954 550.914185 470.091583 355.533600 352.656738 374.772797 473.842102 657.372742 394.257233 509.419983 476.405792 317.367676 226.320709 565.013245 337.565460 550.437927 
Conv_20_param_0 105.616966 284.152405 134.956268 5114.602539 1593.069824 231.317230 193.316666 797.253784 1449.815186 1480.472900 167.091187 260.796661 141.626831 136.899292 161.689575 387.385620 234.187546 197.398102 259.052002 195.124908 195.889435 256.214478 317.619873 151.870667 685.965027 2767.172119 293.715729 201.948120 134.720551 231.722946 30059.386719 255.522919 280.282471 250.203186 148.426498 165.513351 216.103226 92.744270 366.286804 339.718719 151.897919 273.335052 219.077362 254.835617 295.590027 117.103073 209.329819 339.613617 231.954575 203.394455 309.498535 212.223190 148.783249 232.170990 248.484680 261.566071 193.602112 901.963440 158.511536 122.423149 1137.056885 166.861206 262.350616 18167.373047 158.463898 108.536179 395.197449 277.573517 164.623611 165.062485 139.436020 164.446426 201.172485 305.881287 394.630676 116.257095 365.048187 182.032654 160.883408 245.559326 172.157898 183.957764 250.610794 235.047592 256.662201 164.589478 133.350723 300.298157 97.680008 277.517426 229.053223 431.732880 173.436127 221.067245 163.792404 208.840988 166.150177 223.687576 229.920197 201.540192 86.437729 87.502335 143.898544 213.438690 361.787079 171.689484 209.664856 115.317566 195.477097 131.561829 83.320694 556.113770 151.512909 774.216125 157.847626 163.033279 127.903580 273.654663 183.170395 159.023392 3260.026611 630.264282 141.483185 504.093903 213.042633 103.866997 340.782654 166.433441 
Conv_23_param_0 2261.851562 2746.570068 3741.380859 2065.062988 2629.858643 1876.720459 2630.117920 2734.642822 2004.771973 2204.598877 2666.788818 3345.025879 2107.288330 2849.430420 2031.218018 2468.809082 2656.022217 1840.675659 2192.284668 2551.240234 2197.812744 2357.212402 2932.797363 2599.011475 2504.977539 3616.466309 3483.666016 2621.709961 2880.334961 3059.965332 2592.027588 1884.019287 2683.206543 2787.060547 3038.547607 2189.622803 2765.988770 2214.722412 2679.482910 2327.178711 2377.884277 2267.176514 1951.120850 2513.919922 2612.196533 2653.062988 2334.651611 2757.927734 1505.803223 2909.475586 1701.078247 2372.509277 2171.570068 2486.348877 2176.868896 1570.099365 1707.151489 2551.249756 2842.633789 1814.510376 2331.945801 2042.620117 2381.121582 2216.206299 2604.705811 2106.428223 2621.835693 1641.283813 2356.574463 1456.143555 3698.965088 3011.029785 2320.255859 2358.849121 2336.921875 2122.718506 2296.333252 3077.925049 2587.597900 2752.427490 2531.186523 2182.899170 3373.232666 2059.257568 2677.100342 2739.476562 2362.799805 1788.555420 2152.062988 2377.011963 1626.502686 2995.236816 2852.591309 2353.928711 2739.887207 2376.114258 2700.149414 2399.464355 2170.263672 2632.356689 2413.525391 2360.970947 2134.150635 2959.807617 2205.115234 2006.276855 2541.320801 2313.272217 2989.803955 2150.806152 3182.800781 2605.422852 2941.920410 2810.179688 1689.349609 2310.073975 2139.485107 1825.717163 2260.106934 2024.125122 1900.612793 3093.937744 1936.281372 2594.366699 2959.768066 3083.668213 1759.587646 1783.021362 2291.202393 3054.443359 2619.973633 2514.125244 2178.490479 2534.617188 1644.058350 2039.841431 2770.943115 3164.816406 2235.597412 2476.247559 2014.369995 2892.414307 2489.263428 3502.902344 3818.307373 2832.656738 2272.134033 2329.671631 2763.055664 2171.413086 2598.211182 2306.926514 2113.155273 2668.730713 2259.725830 2079.524170 2202.310547 2014.790283 2122.693359 2443.294434 3476.041748 2253.178223 2165.090332 3052.343506 2813.757568 1708.308960 2420.216797 2203.094482 3007.874268 2843.828857 3144.725586 3811.777344 3337.519043 2832.896729 2928.612793 2276.682129 2516.663818 2614.624023 2131.650391 2147.093750 2172.047119 2721.764648 2182.718018 2202.512939 1806.383179 2436.289551 2380.627197 2709.839355 2422.122803 1344.625732 2116.945068 3533.100098 3071.237549 1747.007324 3117.720703 3725.328369 2446.193604 2422.098877 3091.986816 3007.084961 2813.413818 2529.095703 2623.788818 1878.801270 2190.244629 1647.759521 2382.940186 2639.093018 1824.529175 2401.917725 2460.439453 1648.630859 2197.726074 1760.955688 2716.586670 2228.258545 2050.091797 1449.630859 2411.806396 2714.848877 2116.720215 2091.708984 2363.482422 2422.275635 2143.791748 2366.357910 2556.483398 2231.594727 2726.988037 2362.094238 2596.857422 2439.665283 2014.975342 2896.606934 1973.327881 2687.031738 2254.928223 2463.093018 2808.675537 3154.604248 2771.381104 2847.588379 2488.375488 2624.071045 2037.324219 2842.249268 2075.432373 2754.314453 2308.413818 1833.140015 2984.565918 3370.628418 2004.859863 2068.118164 2382.086670 2572.356689 
Conv_26_param_0 1125.799561 1818.486816 1718.595459 1230.055420 1231.080933 1699.889893 1310.452637 2344.526855 2612.317627 1327.594360 1014.179565 1630.389038 1432.559082 4231.788086 1066.875732 2901.067139 1535.906006 1321.298340 1047.741333 693.352661 1084.157471 663.496216 709.712708 1832.011108 1215.126709 991.513367 1417.921387 815.689819 2266.776367 1000.720520 826.645081 1272.941895 1887.179810 1595.699829 1594.326904 1118.027100 1344.227539 1742.363159 943.939941 2458.024170 1803.832397 952.765686 980.718262 913.670227 1031.433960 1620.107300 888.961670 1232.208618 1812.504272 2029.851440 2100.518066 3476.311279 1667.743042 608.785950 1661.747437 2133.210938 1421.488281 2107.041748 1987.083740 2095.510498 1723.497070 1541.469849 1341.179932 1223.959839 1038.161377 2457.915771 1814.775024 5130.381348 2088.211914 1654.517944 1954.212769 1124.453125 1702.703491 2422.405029 2037.480835 1615.653564 4500.799316 1213.535889 1154.896729 1377.080444 1864.022095 1306.532471 1404.370239 1564.792236 643.234985 1280.308228 859.705017 1291.997192 2989.812012 3708.461182 796.692261 1902.357910 1298.869263 1324.095459 1502.201660 1475.245361 743.156250 2076.633789 1295.510498 2191.191650 2606.019775 2794.117920 3086.200439 4398.456543 3921.935791 3645.466064 1210.211670 1674.046387 1406.207520 1124.206055 1095.471558 1543.760620 507.573151 2269.526855 1897.888062 1336.326294 593.208679 2302.058838 1059.832642 4621.389648 2067.108887 1770.086548 1160.710938 1069.369507 1867.247437 1406.540039 1048.690552 1024.272095 813.441650 1157.606079 2244.667969 2963.560303 2298.574463 1417.843750 2011.264282 3987.297852 1163.437256 1468.658447 1318.463745 2071.673828 1258.358887 1948.868652 1910.602783 2229.047607 1710.486816 1251.915771 2206.839844 1258.120483 1912.572876 1800.259521 1650.721802 1750.337891 1730.984375 2149.991455 1368.016357 3025.629395 1188.232666 1367.883179 1589.169312 1107.669189 668.928345 1809.005371 1605.605957 1634.889282 1713.069092 2956.988525 1361.126343 1471.174927 1052.256104 2082.639648 1545.208374 1979.522583 5720.680176 732.832581 660.922729 1303.636475 1238.267700 1187.462769 1748.417603 1632.004272 1537.806030 3323.929199 2028.145996 1747.669922 1068.992798 964.088318 2021.600830 832.612793 2841.889160 1221.234863 1740.330688 1641.155884 1580.515259 1510.323120 992.335571 1100.713745 1827.860474 2035.607910 1391.774780 1539.773438 1197.485352 1136.978394 672.325928 1505.836426 875.728394 4269.583008 1005.824158 1923.696167 1604.287842 1351.127197 884.587402 711.135559 1350.234863 895.624329 723.945984 1266.113892 1761.515869 1195.032104 921.516113 1564.150269 1945.350952 1667.489136 2415.276611 1250.191040 1880.489990 2615.296143 878.408325 2115.643555 1134.966797 4427.392090 1727.931030 900.745605 1774.035278 556.395447 1434.408691 468.681702 1190.597290 1337.529175 811.189087 1409.264038 1067.002686 950.163330 1350.002563 1650.977539 1129.368774 1246.147827 3080.880371 1762.903809 828.870789 1442.358032 1054.681641 1768.645020 1305.180664 1737.320190 1294.681030 3152.643799 
Conv_25_param_0 247.199768 191.355026 309.203735 228.065155 251.971741 261.995941 244.324417 307.413849 296.485382 245.072769 361.664642 219.946533 441.172180 237.914246 342.154633 197.932953 268.113434 279.490814 234.615845 525.827209 276.225861 524.494812 371.240631 298.667175 149.537354 283.731049 292.251160 514.173706 250.143402 325.118347 290.627808 306.337799 237.377731 221.611130 299.523346 273.604889 246.156479 275.779388 436.100739 356.081268 271.636932 813.174011 338.999939 399.870087 386.090057 366.600830 348.634155 316.017975 324.726685 259.444061 244.064850 230.112518 304.975006 339.515686 269.477173 234.390289 301.801361 254.852371 172.752579 236.293015 235.051941 376.886719 289.062012 279.266907 229.806946 292.685364 260.311432 253.500961 192.158112 247.722946 216.912552 362.971527 256.349274 369.554321 245.195908 265.274384 214.208908 447.999939 279.659393 312.957733 234.282867 296.500488 264.570251 255.619186 541.874878 290.784027 332.463318 203.820068 304.938751 187.948196 612.062866 183.042221 250.428604 233.751144 214.854416 444.909271 318.915710 272.499634 291.030304 264.228333 507.724365 259.851990 196.737564 316.852905 222.356476 290.090149 333.452698 264.856232 322.504364 266.108948 227.647263 303.569733 331.717102 304.423645 267.519714 225.351654 368.286224 285.158386 359.606232 241.279556 266.069855 123.143555 266.901917 375.980957 256.351501 238.957321 254.631714 193.421097 268.242340 335.521149 237.514145 173.772675 239.784424 237.550034 298.087952 204.896591 253.567337 273.952637 254.556412 297.981415 447.578308 265.227692 220.016190 302.906830 332.431183 279.695831 369.773895 295.945312 284.468109 243.708878 238.752808 183.256271 326.652802 192.215958 237.877350 261.327759 285.521667 252.506943 268.348999 288.466736 243.444473 415.477356 299.182465 329.773315 308.328064 275.030579 275.389221 235.942902 649.290771 286.026520 242.941940 240.916855 289.243286 268.188782 753.956543 494.731995 329.182495 353.524597 207.047958 249.910645 283.714722 236.288498 255.730362 257.886902 369.089264 241.454132 325.301208 590.844971 231.727798 489.339264 238.329620 293.243622 227.863678 312.318390 542.878723 400.629486 330.994293 240.639435 305.269073 223.835129 326.421356 296.618256 270.112946 250.584015 436.961609 217.904907 534.511230 276.081207 168.136642 242.316299 188.622040 466.464203 433.406372 382.178619 260.191833 437.638550 272.858368 257.093414 285.043152 335.299347 236.840836 223.911728 266.921875 196.544144 284.914825 304.339813 331.268951 307.586975 198.267792 206.537308 267.170959 346.615173 219.396210 496.269562 301.049835 342.570190 392.479309 253.597565 250.143875 222.457428 249.863831 692.850281 239.999741 228.615524 176.030899 363.056885 223.717911 260.961639 245.661163 248.936798 266.803558 257.060028 217.073547 150.349594 419.208801 229.121841 
Conv_29_param_0 385.001831 214.183517 331.514557 395.795532 253.744751 273.445221 313.632812 286.004272 240.724548 243.847687 374.832977 281.675568 342.099518 372.421417 258.897003 354.056732 304.171021 369.571381 319.860809 262.626556 223.492599 361.486176 296.658600 288.830841 267.585632 241.091431 277.333405 365.305756 381.200592 312.707245 324.398865 349.857819 204.109421 278.112671 262.229126 360.273743 368.876892 290.128601 283.433655 302.063690 357.214935 285.582672 321.686615 376.222046 372.250122 325.009491 342.404541 245.774658 313.285309 234.263657 259.728271 213.557724 314.971985 260.852051 332.484100 268.952759 288.524475 354.840363 193.511642 343.369141 369.214386 236.441727 302.306488 441.130768 304.325653 245.374847 304.669769 209.804352 269.682770 290.045166 212.592972 313.560516 430.754913 242.502731 276.959930 294.357849 325.292511 198.500153 339.287201 247.272369 379.324615 331.474854 330.910156 234.947525 313.436005 386.688263 234.751999 308.258148 318.816284 279.506805 314.037781 358.286011 300.255493 420.310669 245.210724 204.661514 341.406799 220.418854 263.235779 250.857605 258.986176 300.003754 256.385925 354.021729 451.265839 237.715332 261.141541 496.552856 269.218689 369.555573 264.548035 292.453827 363.199554 336.150574 230.503265 356.528351 298.995667 317.932526 268.895050 274.736725 234.536804 317.494568 298.106842 284.181946 320.219757 335.314087 251.560379 328.828369 287.682404 389.536469 287.953186 262.815552 311.478516 260.961395 403.952240 306.312561 332.844788 240.892548 259.112732 379.419678 231.512634 254.629501 319.234619 342.266205 222.470856 314.720062 268.297852 214.649200 350.573486 303.172882 270.298492 287.620300 290.431274 353.598419 388.611603 281.260956 252.346558 276.884125 247.271881 206.006851 318.843506 493.582367 250.589325 265.635315 315.733429 342.847900 282.438904 310.367798 358.434418 324.365265 316.755676 382.652954 229.296371 353.374786 299.334442 264.904022 246.624451 375.692535 301.369720 263.458923 344.533844 283.071106 225.486786 316.868073 298.569611 405.973785 218.057358 255.427063 295.380707 254.397461 220.278931 273.767395 282.771332 327.976044 353.869171 285.693695 493.921814 296.212860 465.493774 416.831238 274.384918 386.929840 266.119720 445.078522 254.091934 248.900558 200.132523 222.715988 269.257477 357.573090 544.893555 326.187622 320.205383 269.354980 284.756287 309.092651 323.762573 282.675751 338.333893 231.589630 314.486420 285.679382 266.094482 224.303650 222.159607 331.713562 323.712677 375.646637 259.157745 308.747528 285.506683 233.150360 241.032608 229.770920 267.365814 304.388000 312.290863 311.650208 403.921326 285.489288 374.853210 343.020752 291.183746 303.059082 371.385559 256.678894 233.189499 365.771790 315.782074 179.178955 371.269135 350.496918 339.281647 297.004120 315.871490 308.358643 
Conv_31_param_0 94.552719 202.158020 207.824341 99.571655 342.150513 509.097046 134.186218 119.503235 195.810715 185.127625 397.540436 306.840118 165.518784 290.195312 194.964264 146.589340 221.414566 234.641739 154.866699 430.503632 552.061279 526.113220 145.188782 214.219315 144.771423 258.836212 470.601654 196.072021 193.598328 161.709778 170.665024 113.246788 137.904373 304.461823 228.255249 294.427460 103.790092 150.351471 701.023865 1362.957397 217.172028 215.336060 310.443939 274.599731 180.683823 221.478333 696.287842 291.233215 137.559525 139.037415 147.915771 173.951508 165.431534 132.973770 404.139984 149.852753 236.398697 158.101120 160.905380 121.694397 167.138580 149.533173 231.680450 199.216217 205.034393 150.999451 702.912842 277.773590 207.781265 284.430939 165.018295 282.928589 236.017242 165.507202 499.266754 319.953308 213.126450 296.677765 201.419922 118.303024 144.654144 251.132721 271.059845 93.073914 234.056122 208.129883 261.028748 336.826569 225.038757 164.281418 797.022217 99.600975 214.423401 325.134521 242.900146 196.462494 469.476135 189.706604 259.569458 147.221497 237.237793 220.217529 124.707535 206.753342 160.635254 188.935608 423.112396 112.234688 285.754028 115.949684 519.608337 164.304871 502.188232 379.665039 296.983521 261.157806 330.395203 174.727463 1491.408936 177.531754 112.905571 93.437256 500.300690 213.910049 264.366119 162.789047 2293.479980 374.941162 197.136078 196.073959 293.633270 153.873672 165.033646 175.277527 191.823914 283.192078 166.170380 438.859039 140.847061 166.002106 170.681442 152.898300 152.337540 97.176361 155.263870 549.055847 132.677750 223.156708 131.925888 151.354187 204.540878 153.534668 191.934723 111.159210 350.811127 198.504395 194.492889 232.846222 141.444916 208.210419 158.173157 202.589478 289.847412 265.003906 121.381348 157.540634 327.116974 229.874939 201.362778 1532.328979 191.625885 100.719666 176.639847 250.908676 185.694489 2802.821777 427.675140 444.566406 145.921906 174.510544 253.677185 188.347137 127.529266 144.708267 167.727234 139.457977 182.109482 180.864380 112.195465 281.765228 113.401474 204.252579 255.034958 247.536163 239.062347 684.245300 152.842880 163.917969 115.564583 268.905792 256.092041 175.959229 499.176605 345.645142 278.852417 163.193680 4735.321777 224.247772 274.745422 167.613449 297.873047 280.097260 214.303619 270.493347 142.377304 237.984131 325.216156 278.945770 343.968170 260.079926 109.009598 150.418640 179.352341 1465.383911 167.869461 166.590240 324.803558 279.582642 218.284271 257.826141 189.747147 166.592651 210.840195 366.367645 163.836746 298.743225 147.627960 321.274475 206.163345 273.341888 164.019684 1692.928711 354.105438 222.601776 194.711075 314.626892 164.677765 182.304504 782.049438 146.281982 214.731033 233.584152 142.521957 127.632011 548.080200 227.576385 
Conv_34_param_0 2963.633545 2266.090088 3738.007568 2450.574463 3952.615479 2115.616455 2097.122070 3617.687744 4431.658691 2960.646729 2323.924072 2984.405273 3426.335449 4433.599121 2705.182129 2408.074219 3722.538086 2912.333984 2188.405273 3305.933838 2591.676514 3263.462646 3578.823975 3231.544189 2568.768311 3131.503662 1973.553589 2228.933838 2182.244385 2868.513916 2906.550537 2778.915283 1642.601318 4975.010254 1828.985718 2495.951660 2404.946777 3167.839844 2588.434570 2754.355713 2660.685303 3187.493164 3547.168457 2899.795898 2131.865479 2798.029541 3041.374023 2334.508545 3173.534180 3058.056396 3158.492676 2460.578613 2995.208984 3902.723145 2154.025879 2664.142334 3689.435059 3086.568359 2602.625000 3106.912354 2481.409668 2651.864502 3976.758057 2609.685059 2824.166504 2648.085938 3323.902832 3488.924072 4177.357910 2111.980957 2932.028564 3013.659424 2659.086914 3541.702881 3764.873047 2704.124512 4323.804199 2685.301270 1604.980103 2335.488770 1712.004883 2103.413574 2343.133301 2804.361084 3599.970215 2563.656982 1997.648804 3118.724365 3040.524902 2266.824951 2674.256836 2230.019775 2382.108398 2903.548584 2215.358398 3527.471436 2752.392090 2460.877686 2981.361084 1779.893066 2143.831787 2315.779053 2958.853516 3995.415039 2352.579834 2533.811279 2622.596191 2799.501465 3534.892090 2349.944824 2696.599609 1944.223633 3140.125732 2705.755371 2837.324463 1948.518921 3047.790039 2339.899902 2774.761475 3485.220703 2525.125732 2483.603027 3572.241699 1702.146362 2914.782959 2939.688721 2354.803223 3650.056641 1976.057495 2590.394531 2639.253662 2915.681641 2717.946777 2301.505615 1736.842407 3071.102051 2443.940674 2182.052979 3317.369141 2821.515869 2089.072754 2890.249756 2587.221436 2796.524414 3786.227539 2598.656006 4407.118164 2432.288818 3555.281738 2281.675293 2162.355957 3196.093994 3910.945557 3088.288818 3355.564209 2752.932373 4324.523926 2568.082031 2607.248779 2604.510742 3717.781006 2450.812012 4116.251465 3000.900879 2248.893799 2246.107178 3641.404297 2731.914307 2976.295898 2435.824951 3074.922363 3350.436279 2936.645996 1959.379761 2859.740234 1728.458252 2831.699463 2474.815430 2597.460449 2183.858643 2201.817139 2880.029297 3036.794678 3246.153809 2057.864258 2349.126709 2937.214844 2853.163330 2175.250244 2591.417969 1806.705200 2977.761475 3404.092773 2364.332031 3738.065674 2442.577637 3246.022705 1969.143921 3077.017822 2539.392090 2923.465820 2043.455933 3283.558838 3358.484619 3246.198242 2453.218018 2175.910889 3012.966064 2794.780029 3423.173828 2470.667480 3172.935547 2629.333008 2273.482422 2402.508301 3393.770996 3638.515137 3003.079590 3426.831055 4332.309570 2843.970947 3201.827881 3889.200684 3693.286133 2916.351807 2617.617676 2083.035645 2689.671143 3179.191162 2088.946533 3777.837891 3583.147949 3073.697998 2155.117432 2805.327881 2925.659424 2725.602539 2434.696045 2144.322266 3342.214111 2186.554199 2732.334717 1748.308472 4082.329834 3354.410400 2780.193604 3503.219238 2162.359131 2851.710938 3002.684570 2558.438232 2558.639893 3119.391357 2251.500000 2426.965820 3207.605225 2752.019775 2765.528564 3184.461182 2634.070312 3239.661377 3285.260498 3956.547852 2859.725586 2038.095459 2571.382568 3159.493408 3651.004883 2586.618164 1588.563477 2695.017334 3066.276367 3047.881348 3184.399170 3202.413818 3243.547119 3519.753174 2417.124512 2497.831055 2978.738037 2682.824463 2184.063477 3035.828857 2772.684814 1761.960327 2389.727539 2129.615234 2146.916260 2361.961670 2536.897217 4446.269531 2912.725586 2522.114990 2481.578125 2247.002441 2128.674805 3231.091064 2536.335693 3375.455566 2700.906494 2560.217041 3014.660645 2417.182373 3831.433838 2215.911377 2722.391357 2662.168213 3333.229980 2364.824219 2835.060791 2547.283936 2309.909180 2318.093018 2110.675781 2793.593994 2639.356934 3692.917480 2706.427734 2996.837158 3088.722900 2337.595947 2635.452148 2517.206787 3562.757080 2304.361816 2639.717773 2800.710205 2469.812500 2538.210693 2807.635010 3253.666748 3949.446045 2881.025635 4027.338135 2766.048096 3547.876953 4257.500000 2068.322754 2067.894043 3402.471680 1887.634521 2432.836914 3175.147217 3202.934082 2767.529297 3247.290771 3116.901123 2267.457031 3214.604004 3754.717529 1767.304443 3392.025146 3038.546875 2940.118896 3062.385010 3197.490479 1900.072632 2483.138428 2931.314941 1831.077026 3250.637207 1906.227051 3803.045410 2807.549316 2216.010254 3298.130127 3545.959961 2461.180664 2750.553223 3360.819580 3300.750732 3236.172119 2823.063232 2545.200684 3337.766113 2725.175293 3623.448486 2611.363037 2125.776367 2722.322021 2031.639282 2562.887695 2808.267578 3380.947510 3108.609863 2501.895752 3032.438965 3377.987061 2586.541260 2871.650879 3114.164307 2829.530762 3152.915771 2598.674316 3180.468018 1529.407349 3350.121338 3095.746582 2583.327393 2622.489014 3500.309570 3739.384521 2335.334961 2658.979248 2628.246094 3169.977051 2976.419922 2545.290527 2842.087646 2211.916016 2435.263672 1241.217285 3114.939209 1914.598633 2815.545898 2407.327148 3280.320068 2266.442627 3171.213379 3337.434814 2468.336914 2764.010498 2230.959717 1757.028564 3160.122803 2983.140625 2285.393555 2919.170898 2654.364990 2124.051025 2682.943115 3008.261963 2866.473145 2668.065918 3107.676025 2851.331543 2275.772461 3000.846436 3009.455566 3085.165283 2513.131592 2966.544678 2760.326904 3595.031006 2845.808350 2704.448486 2400.015381 2193.767334 2628.360107 2200.317139 2901.676758 3690.177979 2233.212402 2502.824219 2847.111572 3144.983398 2665.599121 2414.546387 3434.170166 1700.289307 2836.015869 2160.837891 3469.807617 3727.625000 2553.445068 2273.098633 2289.521973 3140.845459 3389.913330 2188.365479 3391.825439 3009.462402 2117.878418 2011.628052 3912.127441 2231.833984 2797.180176 2650.225342 2628.281494 2788.320557 2431.976562 5017.033203 3313.505615 3906.948242 2296.461670 2732.726074 3347.097656 2566.505615 2216.603271 2720.519531 2469.344238 3209.697266 3188.742432 3424.572998 3537.108887 3898.377197 2759.658203 3306.059326 1888.883057 2409.544678 2676.500000 3006.720215 1712.956421 3206.217041 2649.762451 3699.576416 2751.449219 1975.211670 3156.715088 2313.372803 2494.487793 2488.277344 
Conv_37_param_0 360.059387 994.410461 983.024536 1223.351196 1080.566772 1106.773682 835.598877 1052.018433 2000.481567 650.036316 1413.820190 578.289246 935.964661 945.706421 934.410767 589.420776 615.062744 1629.250122 973.418396 3109.166748 3000.368652 2337.942383 1033.241211 919.947510 770.502136 1062.601807 821.901550 553.555359 898.150574 842.322571 961.590881 1001.449585 1117.831055 1197.971558 650.264282 1459.276489 1013.729431 801.805359 788.535645 1015.017151 1488.635254 1331.748657 518.212524 1019.702454 880.169617 600.945251 844.204346 495.402283 980.099426 1050.052734 741.364197 1329.395508 1989.287109 550.017456 628.645996 1476.376831 1346.774780 1057.327759 710.879822 546.253723 985.042542 583.730835 1314.808960 806.813049 1152.886353 1440.702637 551.370056 680.264160 892.017395 1063.605591 519.344604 988.517395 1217.140381 915.115112 661.032654 573.911499 1734.082520 637.915466 1056.054810 863.621887 547.406738 1190.880127 560.153931 1069.784058 1302.839722 484.379974 814.811829 824.971497 754.898560 564.570496 762.039429 801.392395 995.839905 936.283997 798.163818 1202.927490 1456.108521 990.603882 724.772339 1108.471313 1832.630859 1428.967529 804.684570 1449.979370 901.255615 1185.274292 593.790527 1243.403442 937.847168 783.158386 760.973877 1515.074951 1056.351929 686.556824 665.685791 1166.136475 1807.474976 892.428589 1077.936768 996.587646 1309.883301 1365.531738 691.499451 1085.264771 902.106384 624.354553 837.694092 2356.189697 601.506592 527.883972 750.318237 658.343018 734.209839 1111.268921 688.068542 1442.391235 1290.933594 1154.235474 470.799194 882.973145 603.914062 740.783569 903.478577 1570.648071 1280.113403 2189.515137 1617.377808 1047.347534 1109.182251 1318.104980 1890.922119 1102.525635 1242.752563 1972.975220 791.566101 1255.947388 1012.878479 1171.102173 2742.524170 824.550476 613.212097 721.115723 1450.885864 866.577942 1061.679810 741.766541 1005.104736 1340.915405 923.606079 748.427551 1033.226318 736.998474 687.926453 1083.322144 708.478394 892.207214 1368.293335 523.800415 1144.543945 831.805725 1866.149902 865.781372 1063.616333 1087.993408 2096.772705 992.501709 686.542358 1470.481201 708.128845 1005.923096 1786.806274 1860.396973 1494.268921 622.356262 913.609680 604.061646 1042.531982 1646.339111 1017.310852 1041.589478 1385.026855 912.806702 948.748291 1158.294434 1259.215698 504.577637 1741.020996 2020.511963 1478.959473 2328.851318 979.937317 1681.827515 632.064514 952.574707 822.623474 1114.905273 464.950348 889.089600 2468.592773 1149.740845 1462.044067 1705.798828 1854.541260 709.596863 1592.184937 944.005920 833.973816 967.463867 964.826416 668.547485 1322.930542 617.637146 829.223450 905.518921 847.107788 848.113831 1038.116089 1464.570068 1715.824463 1475.252930 820.069153 948.802246 903.407959 703.108643 672.948120 627.362244 666.544006 1195.235962 840.075439 1499.412964 1046.753174 476.504089 1242.101318 1991.149780 543.258118 1042.715454 807.176819 1011.310364 1392.438599 1748.395386 1278.832642 584.874023 1164.653320 922.090149 1054.737549 1570.786621 1244.633667 1108.697876 923.406738 1137.031006 1174.936523 1060.035522 645.839844 1400.816284 931.446594 1141.720337 907.674683 668.192627 1059.377319 1363.853760 1070.562256 804.399597 976.040955 580.269287 1884.206909 886.222717 1247.273560 1005.830200 919.837280 1520.142578 715.393433 1559.230713 504.110901 673.659119 1212.550903 639.248657 1228.431030 701.574768 841.883423 1119.304688 1124.804077 740.630676 1192.530884 769.878906 805.508362 662.881592 1762.774658 1195.929932 1462.845337 875.816406 724.429443 1323.681641 1667.537842 2038.508545 1123.020264 892.688416 743.236877 1287.604248 2014.945312 1166.961914 806.501404 1025.840820 676.055298 1104.001221 835.900146 1213.690918 1626.021118 869.318970 564.644104 664.939087 770.045959 749.737000 774.586670 1043.521240 1245.846802 1067.416992 739.015015 1730.213989 1343.476929 1843.147461 746.361206 691.650452 766.653076 1140.077759 961.293335 549.740906 964.433411 1108.658325 1441.933716 888.016846 933.862732 618.636963 862.526123 1446.756104 802.686829 671.222961 1253.066040 684.650085 662.039551 929.368774 748.546387 633.211670 658.065247 460.486908 1160.571411 835.474121 922.734558 824.518677 870.110535 936.030640 1574.538330 845.083984 1118.979492 2043.235718 2100.942627 861.838928 1420.866699 627.575378 1163.067993 790.470215 1114.745117 669.961365 3200.219238 1004.648621 900.808655 2220.195801 1590.052368 601.623901 470.522064 565.338745 1617.443848 1228.364014 766.305176 1718.719482 1718.485962 590.900330 837.586670 1094.562012 1312.862549 1084.596924 1521.612427 1726.762451 1196.549683 428.610352 550.812439 1005.360718 1011.259155 1237.009033 771.716187 1714.963623 902.205200 1334.900879 878.744751 865.357544 736.985474 1510.009644 1775.742554 1067.830078 1144.301636 1045.841675 952.520081 615.404907 700.435974 1309.270630 982.236450 714.756836 736.104126 658.204895 984.938660 805.479736 715.200562 727.107544 693.779114 493.697845 1252.701416 819.077148 1583.097168 793.532898 1409.530273 972.535645 900.109924 643.023560 983.796509 1055.555786 1399.971436 981.411499 1270.910522 612.517883 1548.370972 1658.738770 735.509827 958.808838 1290.618774 1382.499146 898.428101 651.758240 1087.188965 853.490845 896.533203 727.326111 1038.108887 1034.784180 797.556213 1539.367310 843.301941 850.277771 879.724976 1821.561279 966.010193 975.785217 515.978027 1246.378784 885.766357 850.223511 661.216797 1186.504639 1195.013550 1153.406494 1608.077393 758.277039 741.722717 2088.889404 3059.843994 810.350830 989.195068 532.148682 1130.297485 1174.651123 440.618561 1425.612671 510.073792 737.339172 1190.359619 960.705261 923.790833 924.983337 1171.932373 823.401062 999.227112 1317.608765 1327.335205 656.528625 1017.604431 1174.195557 1009.922302 593.415894 809.498535 1351.293945 1158.648682 1148.147339 720.028564 904.030823 
Conv_36_param_0 157.219711 231.040634 379.547485 610.485352 600.627502 287.575958 385.588776 522.839050 702.468384 154.304352 619.690430 184.729019 385.066681 271.406067 235.596985 123.157745 223.640472 714.951172 420.277283 1770.199341 1239.296143 1141.551270 377.166473 216.883255 360.239258 375.187897 201.912308 157.201294 286.074310 254.269806 178.640030 289.062012 262.079346 306.334442 181.912903 532.049805 438.450897 253.511459 393.484558 182.314255 597.473938 526.518799 148.347305 386.088806 232.670502 166.204727 297.824249 154.644867 302.411072 287.555359 191.408691 966.804321 458.309113 232.307739 196.850174 539.422729 727.618896 405.983307 978.292542 215.055801 625.279419 123.982193 1278.992310 203.132462 356.771210 889.558533 283.258118 151.782349 255.187195 485.197784 290.035370 349.428345 248.141220 542.463257 171.900436 424.981812 545.278748 151.295029 281.014740 251.018066 499.522156 278.709839 288.108154 268.154755 1721.294922 191.684937 217.323853 208.069534 217.715042 320.516479 289.937775 389.027191 274.517487 209.376740 336.207703 451.446167 345.921478 265.448730 280.308289 353.040131 855.765930 958.810852 274.490082 537.832581 464.170441 396.980835 182.421463 471.328705 237.396408 314.193481 295.736786 459.020233 338.803436 213.432571 305.702789 347.295746 830.322021 436.924164 583.399170 277.259674 354.209991 326.732422 144.231216 503.942200 224.700958 469.818420 409.862946 670.544373 235.501358 195.926514 220.653900 166.697037 252.523743 343.000824 300.393494 428.942841 420.812836 832.064575 336.313446 324.292084 193.989716 359.146515 268.181702 848.373352 369.585205 562.583313 1338.229004 328.240295 233.423019 411.127441 741.483154 332.847900 530.129639 684.471313 188.899139 705.996765 452.537964 294.684113 1861.589355 198.439240 288.616211 484.277252 1103.281128 329.207184 249.194382 305.894653 351.851105 256.787476 166.343491 163.860443 352.041504 413.938568 183.514420 270.970062 278.312683 551.973145 379.791687 194.095978 621.413391 245.937180 1306.737305 286.116364 358.788940 428.736450 283.690491 378.792145 176.844070 346.808411 201.804871 312.563721 428.054443 484.490906 329.114441 305.235626 510.699066 159.339920 330.605072 2211.521973 361.467010 354.249023 179.055878 295.994049 340.249634 420.300354 389.070068 137.735306 590.824707 1181.988525 536.283386 1002.593506 248.561157 791.675354 135.802246 658.369324 399.179871 301.319916 221.862061 454.253357 1531.069946 1420.230469 680.259705 905.821045 738.725525 140.122574 712.496948 243.939392 355.861237 328.867096 481.571259 477.381226 584.675049 270.071320 282.983185 458.713379 480.786652 233.311386 368.977966 318.196320 1026.952759 469.543732 366.980988 327.506531 451.071106 258.352936 253.236786 208.835358 460.672363 202.130280 201.703110 573.915649 571.856506 321.544128 459.111053 564.349304 155.953049 498.021088 176.651718 261.310760 492.857117 614.461670 357.328949 165.893921 1169.759033 235.501282 467.397491 694.152405 570.247253 362.342499 193.980621 300.262360 285.487030 584.753601 143.669785 839.588623 257.407043 348.725037 219.426758 234.156952 336.199371 492.286316 475.610168 146.375381 341.445312 170.137451 1436.785889 126.924385 1084.829956 653.916382 290.744995 364.489319 297.967468 765.663086 246.026108 402.429657 928.447876 213.580215 354.538483 227.635300 158.060989 324.379608 173.031693 186.344696 540.029602 444.281219 340.511932 186.658661 723.091736 289.694214 580.031006 229.303696 164.397949 532.140991 589.833252 1008.932068 744.266296 459.193207 222.722412 453.191620 835.580627 307.742828 272.792389 309.115601 163.846146 638.268127 228.305466 381.500610 499.230316 279.575989 162.222672 178.522903 196.984848 384.599304 196.051575 475.698517 203.057999 633.459351 370.414886 441.020966 401.173187 1053.608398 168.969086 307.917938 328.249634 310.624390 268.674377 294.719666 193.662033 307.810333 706.202454 279.277557 331.322266 307.545166 281.121185 496.798004 222.169098 177.776321 905.633850 336.543396 207.300613 406.123749 201.318222 158.234467 146.070007 407.601562 276.933014 404.415222 260.960876 335.677368 258.406860 240.752045 720.760681 227.095306 330.166473 727.700439 1000.574341 430.006775 720.535095 280.354889 382.943970 229.332565 422.925720 182.555511 3257.939209 261.484802 220.754456 508.288940 1373.111450 363.027344 265.520477 99.904007 707.966248 171.783737 197.284592 820.760620 538.312439 211.752182 357.298187 375.959229 598.168640 226.086182 474.503937 1020.191833 290.757263 149.310532 135.577484 453.534668 594.991394 474.966034 269.791718 604.082764 375.318512 390.574707 334.147308 293.579742 251.292740 572.918640 526.610229 399.737244 382.169342 278.543182 241.941116 193.653000 210.600632 398.192352 181.613953 178.334808 542.174255 209.280777 282.957642 294.281403 161.842056 364.813507 210.031174 223.867844 345.616577 368.260834 645.653992 332.437927 435.385345 318.489441 298.495544 145.532059 548.073853 578.716797 664.677551 467.434662 536.718872 154.045197 469.363434 466.240143 278.379059 314.927094 383.097137 1296.473755 305.589447 183.218079 269.757599 270.348267 340.672913 160.676132 309.246521 295.895905 235.168518 515.732056 269.621826 191.321762 561.048584 1086.344971 256.554932 435.889893 137.580017 484.695679 254.346863 400.802246 172.645462 314.571930 318.840363 524.753357 526.711548 379.967499 379.699951 1052.715820 1001.341797 203.693100 525.444885 272.601593 439.230835 487.829468 154.375778 534.565674 157.480347 271.726654 424.957306 430.130798 624.909058 243.386490 456.518951 257.147186 477.296600 435.442291 491.412933 661.919678 416.333649 264.152283 218.506561 244.859299 210.647598 459.939667 304.066223 577.063660 214.562668 152.194962 
Conv_40_param_0 2525.218994 3810.038574 4021.757324 3294.846924 2722.019043 4139.707031 3855.319580 2388.511230 2917.061523 2636.668457 2942.314941 3408.821533 2567.984619 3451.981445 2512.192627 3368.843506 3387.329102 6526.271484 1152.154785 3078.566406 3496.832275 4050.567627 3618.370361 2890.907715 7040.267578 2267.456543 1728.608398 3442.184814 3349.500732 2944.557861 3083.394287 4325.355469 3302.979980 3972.658447 2610.596191 9068.881836 2734.217041 2029.833984 2950.076416 3404.457520 2214.780273 5620.241211 2554.411133 2904.628906 896.041992 3482.804688 2549.622314 2357.919678 3175.434814 3248.191162 3277.613525 3104.755371 3084.532959 2289.909424 2064.430664 3134.187988 2402.807861 2830.952637 3429.020508 1682.798096 3122.868408 2817.711914 3073.910400 2747.884033 2160.426025 2406.868896 2468.428711 2791.608398 2342.838135 2419.675049 1506.063843 2229.886230 2438.889160 3122.873535 2628.804199 2923.268311 3234.021729 3813.944580 3036.275391 3384.562744 3530.630371 2598.465820 2495.912842 2985.385254 3118.957031 2591.788330 2563.684570 5053.942871 3188.321533 3076.442383 3926.141113 3278.734863 2395.881104 2867.550781 3622.568359 2822.025879 2797.330322 5536.964355 3041.660400 4855.081543 3683.702148 3630.174072 5917.426270 2470.962891 2392.323486 5031.192871 2743.967041 2412.007568 2584.811035 3237.541260 4883.804688 2317.998779 3013.501709 2233.133789 4707.545410 2519.473877 2167.649902 3982.225586 2881.072266 3973.742920 3780.802246 2853.933838 2424.394043 2419.347900 4798.766113 3205.530273 3557.517822 882.244141 1978.163208 2647.718994 2326.716553 3506.172363 4404.435547 4611.240234 5633.331543 3457.173584 3272.587891 2624.895508 3777.282715 1793.903687 2460.612549 2130.104736 2423.476562 1640.088623 3863.470215 4714.083984 3841.638184 2597.334961 3398.362549 3255.946777 2269.052979 1933.498535 2794.468506 2048.719238 3152.791016 2740.081787 5149.472656 3572.277588 3017.907471 2563.228271 3596.218750 2191.957031 4461.151855 2576.673340 4809.540527 4224.860352 3542.073486 3540.804932 2401.521729 3829.140869 3064.394775 2200.405762 2650.186768 2512.489014 2570.865967 2795.120850 2650.091064 3427.353271 4084.660400 3204.718262 2407.191895 2506.469971 4768.150391 3377.158691 2362.089111 4523.640625 3048.381836 2485.901123 3291.593018 1931.008423 3196.425781 3983.105225 1769.564209 1947.791870 2858.238037 3101.576660 3904.527588 3431.613037 2521.340088 2193.604492 2989.095947 3751.072998 2430.116943 2942.470947 1402.323853 2118.803711 2326.379395 2595.725098 2629.237305 3431.501465 3066.841553 1357.086426 2870.500732 4561.664551 4322.210938 3832.958252 2585.191650 2415.824463 4979.342285 2820.947998 1829.828247 3508.221191 4309.143555 2194.028320 2752.292236 2881.835693 2408.805908 2507.946289 2776.414307 1654.040527 1749.150879 1360.254150 3032.245361 2598.433594 3144.549805 4076.559570 3683.768066 3308.275146 2678.687744 4162.321289 1363.082642 2914.189697 3871.307373 2663.215088 3195.265137 2409.723877 2571.402588 3394.193604 2531.104004 2517.123779 3274.743408 3079.209229 2632.170654 3410.214111 3459.651611 2474.555664 2943.952393 4090.212891 3111.354736 3839.844971 1892.462891 2242.512695 3372.512207 4046.881348 3952.202637 2206.314697 1784.019531 2653.724609 2553.498047 3714.006104 2975.360596 1636.633179 2119.132568 3215.730713 2465.545410 3553.322754 3847.669434 3037.331299 2664.882324 3264.064941 3050.442871 3908.792236 3183.004150 2185.023193 2303.963379 4485.250000 2394.160645 2391.869385 2388.516846 3319.164551 2402.256104 3660.640869 5467.158203 2256.359375 3541.210205 3661.635986 5466.165527 4703.363770 5258.867188 2798.635254 2834.847412 4920.543457 3101.666016 3604.392334 2269.448975 4558.640625 3605.417725 2726.080322 3281.355713 3391.626709 2348.515381 3207.570068 5456.514160 2411.191650 3134.073242 4057.580078 3995.540039 2944.101807 2236.631104 1529.250488 2085.590820 4495.089355 2844.697266 2329.524902 2675.700439 3293.056396 2830.486816 3592.790039 2105.701416 3032.714355 2556.950195 4905.189941 4556.456055 3071.085449 2141.969727 2736.160156 4368.142090 4110.888672 3075.348145 2984.116211 3161.807617 2534.556152 1574.856689 4672.855469 2363.854492 3276.161377 3848.874023 3564.855957 3044.673096 3961.755371 5342.966797 3671.444824 3495.784912 2321.786133 4058.856445 1807.036011 3469.533691 2551.847412 3133.812256 2613.394775 1905.472900 2730.354248 3153.273438 5324.596191 2302.502441 3205.691162 3416.835693 2152.119873 2775.065674 2596.101807 3316.178467 4108.794922 2202.047607 4830.330566 3382.337158 2178.341553 2657.498291 3329.806396 3774.172852 4028.769287 3060.413330 2679.710693 3023.690918 3907.799072 1989.409912 1961.823975 2646.023193 3085.615479 2966.776611 1633.820068 3645.063721 2251.135986 4676.778809 3511.968994 4834.040039 3703.582764 2857.635742 1631.367920 2015.481445 4696.760742 3067.078125 4321.218750 2959.067627 2008.641357 2620.853271 1378.833740 3907.462646 4527.260742 4605.634766 4280.740234 2584.842041 3264.954346 1850.559326 2850.580322 2806.841064 3733.944824 3809.810791 2811.886230 2882.153564 4349.285645 3025.506592 3180.522461 3724.038574 5332.501953 3868.523926 2539.307861 2183.818604 4279.532227 5149.108887 2394.574707 2379.800293 3964.336182 3792.933350 3242.033691 4129.618164 2805.489014 2819.432373 3278.168457 1703.528076 4966.956055 3987.868896 2988.506348 3231.939453 3179.276123 3371.094971 2906.701904 3160.582520 2265.219727 3863.403076 2246.922363 3687.915283 3905.160156 4418.160156 1454.883423 3058.148438 3930.644775 4330.917969 2774.080322 3023.259521 3688.562988 3234.800049 2659.226807 2791.174805 1374.820068 3865.651367 2804.534912 2746.049072 3086.425293 2217.689697 2979.956543 2532.679443 3111.965576 2036.241943 2285.015381 2778.992676 4486.119629 2849.927002 4489.942871 2300.291504 2897.319336 3880.721680 3256.058105 3885.337158 2215.524658 2695.562744 2526.860107 2827.493408 2112.602295 2559.521729 3245.246094 2698.549072 2371.808838 2019.917236 2258.356445 3773.790771 3032.599609 3795.830811 3263.304199 3151.474365 2495.528320 3124.962158 2274.698975 5147.083496 2608.004639 2906.062744 3392.764648 2862.325195 2767.419678 2981.989258 3238.813232 2659.240723 3843.362549 
Conv_42_param_0 210.564056 380.114166 693.824829 1314.896973 845.689819 454.795685 242.281860 1496.305054 494.941162 184.260788 2612.817871 214.737106 392.296173 222.271866 306.819305 135.651199 185.491714 1592.154175 477.218903 1932.562378 1819.989746 1787.664673 447.998016 377.430695 211.881775 589.652527 203.302170 186.483521 1915.542603 304.484772 144.121048 401.829498 305.334381 254.527115 222.767487 994.134033 668.463318 334.391632 572.227478 138.736206 709.587524 1380.205688 80.141060 817.759583 196.675217 90.446663 598.018433 62.326397 265.360565 939.122498 142.271545 1607.876831 436.878326 208.295334 190.088379 432.602325 758.856628 382.784912 873.196594 612.885742 1004.365662 107.024765 1016.266113 211.970520 224.476364 1470.994141 926.311768 182.276428 198.446350 1031.364258 1145.375732 412.592438 316.385834 1099.596558 286.450073 1081.246338 630.225769 288.711792 256.995270 251.132401 449.693604 287.222595 555.211731 442.370911 1395.012939 251.133896 59.266972 456.258240 176.449005 454.401367 146.169220 1524.676514 697.398132 358.284607 776.953613 703.789734 277.969513 240.235992 292.361572 592.609680 676.566528 3562.379883 549.778931 890.686035 448.235260 459.246277 285.658081 836.930298 148.601761 159.311371 605.021667 393.666565 246.792999 276.408844 458.875977 141.827652 1225.284180 1177.267090 1273.817261 390.756958 612.506836 299.057617 109.754318 867.719360 224.952057 454.188263 659.994507 1341.515503 240.074921 186.155807 411.784363 182.873718 251.354126 232.744827 363.091675 713.847961 931.237244 1384.282104 226.533859 276.447876 323.358429 377.181946 241.327499 1616.088135 458.407684 1148.878540 1614.953247 548.817200 218.554199 412.425323 1318.426758 474.167999 1186.828491 2183.303711 393.288116 1415.424194 426.880035 250.453720 1254.707275 177.886978 835.164856 533.929626 5761.922363 622.132935 226.607361 25.197338 293.308258 152.820114 674.458679 173.544952 351.961639 553.829285 245.361893 207.129822 312.098175 354.108215 481.820740 121.897804 1398.705566 260.511200 620.640076 631.969421 355.456268 382.505005 565.006714 388.555969 214.468781 246.470154 170.447784 266.176971 737.565247 1002.249695 361.263275 770.252563 604.273743 178.318390 451.565826 2945.012695 394.964386 400.696838 379.209137 357.968658 376.317169 532.751465 290.699707 120.040482 801.412170 1862.438232 580.175415 2036.927612 329.380585 885.521545 120.352547 3257.277344 530.021301 163.296478 264.796906 1403.193115 1385.639404 1573.671753 809.281189 1123.746582 875.222778 129.961060 830.613953 393.257172 317.270142 507.901550 562.504578 1947.852661 629.995605 162.602554 388.499756 428.370331 904.965454 388.789948 469.089081 303.498627 601.773560 513.448669 362.673431 341.671387 1215.102661 625.800781 172.193069 136.369553 365.852478 214.053497 183.687332 722.733093 517.848816 260.955353 812.810913 652.826050 174.487228 828.617249 177.412872 368.940674 390.983093 1039.164429 429.981781 177.495834 1040.634644 197.973129 499.138641 1118.564209 592.240234 231.883118 159.291901 622.696350 333.758179 994.686523 162.236816 1063.764038 257.701874 366.162537 200.970627 249.672791 768.957031 1112.495117 442.885468 112.640251 488.324402 88.103439 754.163147 129.133759 1494.392822 826.945251 213.416504 536.944519 372.677032 2459.196777 435.461121 41.571922 763.843384 353.974213 549.112488 241.525635 179.136459 239.372330 242.063919 107.336403 926.089905 522.173828 344.370911 144.388214 321.807495 355.638214 762.193298 138.650452 179.085327 533.358826 680.189331 1651.337280 1491.173950 575.508179 48.810020 704.065002 1307.738037 884.990784 256.541138 597.920288 86.110527 750.378967 98.839188 583.004944 503.353668 270.691559 403.448303 190.100174 533.404663 533.711792 181.104797 1182.957397 311.346161 788.133850 374.028229 914.220337 707.661499 1242.057495 83.586136 558.699280 428.235504 510.851532 317.562927 225.414856 111.162743 303.251343 870.240356 338.251831 240.497177 235.475357 123.100311 506.559296 223.212082 144.943771 2430.314941 457.708984 36.515438 313.026123 88.185181 213.610779 208.378845 1396.563477 337.508728 397.047394 430.913788 673.831116 232.822617 648.035828 771.349976 198.116928 382.990265 1208.070068 1854.138794 532.138489 1297.997925 323.113281 852.076416 340.438965 466.283508 137.762405 1877.799316 483.348633 329.294952 706.960449 898.315063 268.618011 191.167725 109.473244 848.579041 160.791260 190.690338 1112.730347 946.130371 301.882935 199.774750 1039.937256 1634.109863 161.760422 375.438843 1231.803589 401.315857 27.307880 104.768600 230.543701 678.556885 630.213684 343.966492 856.860291 451.525330 401.294800 369.862244 333.976440 213.982773 356.471558 611.967407 262.084900 684.489868 174.539597 131.124344 282.376678 167.852493 322.509216 214.625534 129.825134 677.277771 339.304810 345.710663 386.798004 154.099686 665.691833 341.820312 261.073730 499.231201 511.871552 1074.089966 486.886627 825.112305 284.500977 34.969383 142.363007 976.818787 1526.760498 994.849976 458.245850 932.417542 255.793289 901.797363 1056.511597 488.262543 383.639832 244.592880 1271.892090 303.145569 176.959442 375.862885 436.252899 619.827820 159.570847 52.625427 336.460266 525.362732 844.333069 199.263351 233.386215 702.218323 694.139587 303.428101 655.219666 64.141792 612.441467 253.988129 365.438385 201.114151 348.897797 738.913147 439.203522 816.804810 425.451355 405.038452 1490.181396 1379.518799 201.773895 1244.605225 825.309998 597.743958 804.313599 113.340027 667.736389 209.713028 635.239319 463.320312 393.775116 62.326115 517.452087 608.204346 243.179581 338.194366 442.812195 562.510376 520.243591 333.739044 233.413986 130.460144 170.811462 277.271179 909.091125 488.653473 530.268555 212.395660 168.962112 
Gemm_48_param_0 168.034958 106.214439 195.450073 159.478500 145.726105 152.403610 202.220779 188.312103 188.594650 142.504166 
Conv_0 52.963833 
Conv_2 54.919399 
Conv_4 70.717560 
Conv_7 29.855343 
Conv_9 67.830841 
Conv_12 35.746864 
Conv_15 35.746864 
Conv_14 85.860863 
Conv_18 45.529518 
Conv_20 82.077072 
Conv_23 39.989586 
Conv_26 39.989586 
Conv_25 85.281380 
Conv_29 64.857254 
Conv_31 92.494225 
Conv_34 49.576843 
Conv_37 49.576843 
Conv_36 118.520805 
Conv_40 28.492222 
Conv_42 104.098808 
Gemm_48 84.791176 
